<pad>	0
<s>	0
</s>	0
<unk>	0
<|user|>	0
<|assistant|>	0
<0x00>	0
<0x01>	0
<0x02>	0
<0x03>	0
<0x04>	0
<0x05>	0
<0x06>	0
<0x07>	0
<0x08>	0
<0x09>	0
<0x0A>	0
<0x0B>	0
<0x0C>	0
<0x0D>	0
<0x0E>	0
<0x0F>	0
<0x10>	0
<0x11>	0
<0x12>	0
<0x13>	0
<0x14>	0
<0x15>	0
<0x16>	0
<0x17>	0
<0x18>	0
<0x19>	0
<0x1A>	0
<0x1B>	0
<0x1C>	0
<0x1D>	0
<0x1E>	0
<0x1F>	0
<0x20>	0
<0x21>	0
<0x22>	0
<0x23>	0
<0x24>	0
<0x25>	0
<0x26>	0
<0x27>	0
<0x28>	0
<0x29>	0
<0x2A>	0
<0x2B>	0
<0x2C>	0
<0x2D>	0
<0x2E>	0
<0x2F>	0
<0x30>	0
<0x31>	0
<0x32>	0
<0x33>	0
<0x34>	0
<0x35>	0
<0x36>	0
<0x37>	0
<0x38>	0
<0x39>	0
<0x3A>	0
<0x3B>	0
<0x3C>	0
<0x3D>	0
<0x3E>	0
<0x3F>	0
<0x40>	0
<0x41>	0
<0x42>	0
<0x43>	0
<0x44>	0
<0x45>	0
<0x46>	0
<0x47>	0
<0x48>	0
<0x49>	0
<0x4A>	0
<0x4B>	0
<0x4C>	0
<0x4D>	0
<0x4E>	0
<0x4F>	0
<0x50>	0
<0x51>	0
<0x52>	0
<0x53>	0
<0x54>	0
<0x55>	0
<0x56>	0
<0x57>	0
<0x58>	0
<0x59>	0
<0x5A>	0
<0x5B>	0
<0x5C>	0
<0x5D>	0
<0x5E>	0
<0x5F>	0
<0x60>	0
<0x61>	0
<0x62>	0
<0x63>	0
<0x64>	0
<0x65>	0
<0x66>	0
<0x67>	0
<0x68>	0
<0x69>	0
<0x6A>	0
<0x6B>	0
<0x6C>	0
<0x6D>	0
<0x6E>	0
<0x6F>	0
<0x70>	0
<0x71>	0
<0x72>	0
<0x73>	0
<0x74>	0
<0x75>	0
<0x76>	0
<0x77>	0
<0x78>	0
<0x79>	0
<0x7A>	0
<0x7B>	0
<0x7C>	0
<0x7D>	0
<0x7E>	0
<0x7F>	0
<0x80>	0
<0x81>	0
<0x82>	0
<0x83>	0
<0x84>	0
<0x85>	0
<0x86>	0
<0x87>	0
<0x88>	0
<0x89>	0
<0x8A>	0
<0x8B>	0
<0x8C>	0
<0x8D>	0
<0x8E>	0
<0x8F>	0
<0x90>	0
<0x91>	0
<0x92>	0
<0x93>	0
<0x94>	0
<0x95>	0
<0x96>	0
<0x97>	0
<0x98>	0
<0x99>	0
<0x9A>	0
<0x9B>	0
<0x9C>	0
<0x9D>	0
<0x9E>	0
<0x9F>	0
<0xA0>	0
<0xA1>	0
<0xA2>	0
<0xA3>	0
<0xA4>	0
<0xA5>	0
<0xA6>	0
<0xA7>	0
<0xA8>	0
<0xA9>	0
<0xAA>	0
<0xAB>	0
<0xAC>	0
<0xAD>	0
<0xAE>	0
<0xAF>	0
<0xB0>	0
<0xB1>	0
<0xB2>	0
<0xB3>	0
<0xB4>	0
<0xB5>	0
<0xB6>	0
<0xB7>	0
<0xB8>	0
<0xB9>	0
<0xBA>	0
<0xBB>	0
<0xBC>	0
<0xBD>	0
<0xBE>	0
<0xBF>	0
<0xC0>	0
<0xC1>	0
<0xC2>	0
<0xC3>	0
<0xC4>	0
<0xC5>	0
<0xC6>	0
<0xC7>	0
<0xC8>	0
<0xC9>	0
<0xCA>	0
<0xCB>	0
<0xCC>	0
<0xCD>	0
<0xCE>	0
<0xCF>	0
<0xD0>	0
<0xD1>	0
<0xD2>	0
<0xD3>	0
<0xD4>	0
<0xD5>	0
<0xD6>	0
<0xD7>	0
<0xD8>	0
<0xD9>	0
<0xDA>	0
<0xDB>	0
<0xDC>	0
<0xDD>	0
<0xDE>	0
<0xDF>	0
<0xE0>	0
<0xE1>	0
<0xE2>	0
<0xE3>	0
<0xE4>	0
<0xE5>	0
<0xE6>	0
<0xE7>	0
<0xE8>	0
<0xE9>	0
<0xEA>	0
<0xEB>	0
<0xEC>	0
<0xED>	0
<0xEE>	0
<0xEF>	0
<0xF0>	0
<0xF1>	0
<0xF2>	0
<0xF3>	0
<0xF4>	0
<0xF5>	0
<0xF6>	0
<0xF7>	0
<0xF8>	0
<0xF9>	0
<0xFA>	0
<0xFB>	0
<0xFC>	0
<0xFD>	0
<0xFE>	0
<0xFF>	0
▁	-2.23641
ة	-3.85714
▁ال	-4.00145
▁في	-4.05349
.	-4.07168
ه	-4.30251
...	-4.34485
ات	-4.43575
▁من	-4.45485
،	-4.55228
ي	-4.57468
▁و	-4.60755
ا	-4.63145
▁ا	-4.81009
▁ب	-5.06687
م	-5.17672
▁الله	-5.25248
ية	-5.30251
▁علي	-5.30558
▁ت	-5.3646
▁هو	-5.37077
ت	-5.38606
▁هي	-5.39698
▁م	-5.41205
▁او	-5.49418
▁ي	-5.49924
ن	-5.56904
▁ل	-5.59591
ل	-5.62185
▁الي	-5.66785
▁ان	-5.72413
▁مراجع	-5.74979
نا	-5.75447
▁ما	-5.7884
ين	-5.83819
ها	-5.84975
▁لا	-5.85668
ك	-5.87088
ر	-5.8807
و	-5.92266
▁كل	-5.94676
ون	-6.02297
▁مدينة	-6.11238
▁محافظة	-6.13985
▁مع	-6.16824
▁احد	-6.16931
اء	-6.20529
▁يا	-6.21067
د	-6.23504
▁منطقة	-6.26818
▁الا	-6.27399
تقع	-6.28732
▁الم	-6.30164
▁...	-6.32766
▁عن	-6.34619
▁ايضا	-6.36179
ان	-6.3766
▁التي	-6.40125
ب	-6.4519
▁بن	-6.51164
▁اليابان	-6.51827
▁ف	-6.53295
▁وال	-6.5355
ال	-6.56173
ما	-6.56478
ف	-6.56805
ار	-6.57087
▁بال	-6.57126
▁قد	-6.58619
▁لل	-6.59287
▁بين	-6.59788
هم	-6.62279
▁الاردن	-6.62914
,	-6.74986
ني	-6.75178
ق	-6.75245
▁هذا	-6.77512
▁انا	-6.77625
ع	-6.79207
▁اللي	-6.8376
بر	-6.85459
مة	-6.85763
كم	-6.87289
▁ولا	-6.87697
▁اسم	-6.89501
يات	-6.90874
س	-6.90997
▁توضيح	-6.91484
وا	-6.91553
▁اي	-6.94035
يه	-6.947
▁اماكن	-6.95654
▁صفح	-6.95869
▁محافظ	-7.00217
▁ك	-7.03078
تكون	-7.03127
▁ع	-7.04363
▁ن	-7.04535
▁دول	-7.06282
▁عناصر	-7.06615
سماء	-7.07536
▁عند	-7.07585
▁اذا	-7.08487
▁عام	-7.08508
▁.	-7.10448
▁لو	-7.11591
يد	-7.12282
نظر	-7.13457
ز	-7.13679
عني	-7.15571
▁هذه	-7.15971
▁انه	-7.16723
ناس	-7.16828
▁والله	-7.17222
علام	-7.17988
▁غير	-7.18385
▁الذي	-7.19791
▁محمد	-7.23487
▁وا	-7.23879
▁جنوب	-7.24407
▁حسب	-7.25729
▁جزيرة	-7.27781
لي	-7.28452
▁بس	-7.28845
يا	-7.29334
▁س	-7.29556
▁،	-7.30124
▁مش	-7.30669
ج	-7.30716
▁الدورة	-7.30857
▁المراجع	-7.31055
▁وي	-7.31698
ولاية	-7.32571
▁ق	-7.33327
▁كان	-7.33757
▁بعد	-7.33822
▁لغ	-7.35408
ح	-7.3778
ط	-7.38978
▁احداث	-7.3943
▁علم	-7.44068
▁فيها	-7.44727
وهو	-7.46427
▁اقرا	-7.46728
▁حروف	-7.47327
▁كانت	-7.475
تي	-7.47791
▁خارجي	-7.48648
دي	-7.48976
▁مثل	-7.49128
▁1	-7.49407
▁العالم	-7.51162
▁دي	-7.51278
▁الف	-7.51469
▁عدد	-7.51561
ش	-7.52145
▁شمال	-7.52262
في	-7.52614
▁وت	-7.52889
▁الالكانات	-7.53342
▁19	-7.53347
▁مدن	-7.5411
▁تو	-7.54409
وهي	-7.54578
▁ش	-7.54682
▁سنة	-7.5484
▁وله	-7.55545
▁عبد	-7.55974
مجموعة	-7.56461
▁ربنا	-7.5678
ذ	-7.56788
ـ	-7.58266
▁قبل	-7.58356
▁كما	-7.58454
▁تاسيس	-7.58483
لهم	-7.58491
ستخدم	-7.58588
▁مقاطع	-7.59224
▁الاصو	-7.59275
▁اس	-7.59668
ير	-7.60105
▁انت	-7.61167
▁حتي	-7.61743
▁عاصمتها	-7.61956
▁يوم	-7.62754
▁ه	-7.63086
▁الدول	-7.63099
▁وحد	-7.63496
▁المتحدة	-7.63983
▁ح	-7.64048
▁رب	-7.64338
تان	-7.64642
▁اكثر	-7.64944
يل	-7.65076
▁عليه	-7.66198
▁فعل	-7.67251
▁اتفاق	-7.68122
▁يعني	-7.68218
▁يكون	-7.68307
▁ج	-7.68574
ور	-7.68783
رة	-7.68987
ول	-7.69537
▁واحد	-7.69962
▁رئيس	-7.70219
▁توا	-7.70451
امة	-7.70653
له	-7.71336
▁عمل	-7.71463
▁مو	-7.72558
▁الت	-7.73128
▁الكيميائية	-7.73184
▁الدين	-7.73766
خارج	-7.74124
▁الحياه	-7.74416
▁تاريخ	-7.74433
▁ام	-7.75153
▁هيك	-7.75172
صلات	-7.7526
حروف	-7.75842
▁كم	-7.76132
وي	-7.76596
▁بها	-7.77322
▁اللغ	-7.78325
▁المجموعة	-7.78499
لا	-7.78526
▁لكن	-7.78845
▁الثالث	-7.79134
▁المسلمين	-7.79183
▁تشير	-7.79278
▁الثاني	-7.7936
دة	-7.79471
يكان	-7.79911
▁يارب	-7.79964
▁شو	-7.80065
▁اول	-7.80584
▁نحن	-7.81239
▁له	-7.81375
▁كلم	-7.81426
من	-7.81518
▁فان	-7.8191
ء	-7.82143
▁الموجود	-7.82506
▁الهيدروكربونية	-7.82545
▁الصيغة	-7.8278
▁السنة	-7.82912
▁به	-7.82925
▁حاليا	-7.83053
▁العمل	-7.83148
ناطق	-7.83492
▁لي	-7.83587
اد	-7.8368
▁الخ	-7.84989
▁والت	-7.85414
جدول	-7.85469
▁لان	-7.85482
بلغ	-7.8549
▁فيه	-7.85499
▁سكان	-7.85535
▁الخامس	-7.85938
راء	-7.85955
▁الاول	-7.8601
▁مايو	-7.86026
▁اشخاص	-7.86171
▁غ	-7.86253
▁جمهورية	-7.86678
عناصر	-7.86744
تين	-7.88382
▁الح	-7.88421
▁موال	-7.89535
▁جامع	-7.89541
▁قائمة	-7.89542
▁فارس	-7.89723
كون	-7.89973
در	-7.90111
▁وفيات	-7.90241
▁2	-7.9189
لك	-7.91919
ته	-7.92235
كان	-7.931
وم	-7.93136
▁بي	-7.93351
▁ارزقن	-7.95087
▁حيث	-7.95137
▁ومن	-7.95615
▁بر	-7.96252
لة	-7.96503
▁نعم	-7.96831
مثل	-7.97133
▁د	-7.97614
▁العربية	-7.97976
▁اما	-7.98082
▁عشر	-7.98312
▁الن	-7.9865
حدي	-7.99344
▁سي	-7.99539
▁يمكن	-7.99905
▁وب	-7.99908
▁الاسلام	-8.00107
▁لك	-8.005
رية	-8.00504
▁ملك	-8.01008
▁القرن	-8.01067
▁الجزائر	-8.01266
▁با	-8.01284
▁قو	-8.01694
اني	-8.01849
▁نظام	-8.01877
▁وقد	-8.02606
▁ر	-8.02696
▁نفس	-8.02731
▁الس	-8.02791
▁الص	-8.02822
▁20	-8.03054
▁اكتو	-8.03623
▁3	-8.04154
به	-8.04553
▁الع	-8.04731
▁تحت	-8.05048
▁هونشو	-8.05143
▁ابو	-8.05257
▁طريق	-8.05467
كرة	-8.05507
▁198	-8.0588
روح	-8.0655
▁قياس	-8.06681
▁يعرف	-8.06917
شكل	-8.06941
▁البن	-8.07765
▁يتم	-8.08598
▁وفي	-8.08902
فر	-8.08924
▁لها	-8.09222
▁لله	-8.09456
▁سوريا	-8.10129
▁بعض	-8.10275
تك	-8.10479
▁زي	-8.1069
بي	-8.10911
▁النووي	-8.11068
تها	-8.11277
كي	-8.11368
▁الكيمياء	-8.11439
▁غاز	-8.11512
تنا	-8.11558
▁شخص	-8.11745
▁دولة	-8.11817
▁4	-8.11913
▁لم	-8.12032
▁دين	-8.12512
وس	-8.13292
▁باليابانية	-8.14003
▁صور	-8.14549
▁مملك	-8.14804
▁قلب	-8.14874
▁بلاد	-8.15357
2	-8.158
هي	-8.15841
▁الملك	-8.16151
كيمياء	-8.16232
▁ذات	-8.16273
▁الرسمي	-8.16691
شهر	-8.16708
▁وصل	-8.16714
يم	-8.16747
▁ليس	-8.17059
▁اهل	-8.17295
▁ليون	-8.17425
غ	-8.1769
ائية	-8.17889
▁اكبر	-8.18145
رب	-8.18547
▁جميل	-8.18641
▁غرب	-8.18772
▁جورج	-8.18829
▁المانيا	-8.19274
▁الدنيا	-8.19276
▁جدا	-8.19453
وجد	-8.19685
▁بالله	-8.20031
▁اح	-8.20053
▁تع	-8.20203
▁الكربون	-8.20463
▁8	-8.20605
ام	-8.20959
▁الايوبي	-8.21137
فترة	-8.21154
مي	-8.21201
▁لكل	-8.21753
ذلك	-8.2193
هو	-8.21998
ض	-8.22468
▁خ	-8.22584
شي	-8.23257
▁الان	-8.23286
▁خارج	-8.2332
▁بطل	-8.23469
▁شرق	-8.23859
برنامج	-8.23926
▁الدوري	-8.23956
▁نسمة	-8.23967
يس	-8.24054
▁الحرف	-8.24162
▁شي	-8.24167
رؤ	-8.24301
ري	-8.24318
▁اله	-8.24466
▁الزمن	-8.24469
▁اجعل	-8.24574
▁العراق	-8.24662
▁زاوي	-8.24768
▁وكل	-8.2484
▁تم	-8.2485
▁الارض	-8.25161
▁الانسان	-8.25655
▁اوساكا	-8.26032
▁الب	-8.26129
امج	-8.26317
▁شيء	-8.26324
▁10	-8.26541
▁نادي	-8.26895
اس	-8.27146
▁الد	-8.27194
قول	-8.27864
يون	-8.28238
▁صباح	-8.28334
▁نسب	-8.28749
هما	-8.28841
▁البلد	-8.29018
▁دائما	-8.29076
▁سبتم	-8.29117
موس	-8.2914
▁المملك	-8.29409
▁اصبح	-8.29468
▁دوري	-8.29568
اليد	-8.29654
▁الحكم	-8.29716
وش	-8.29735
▁الكانات	-8.3002
لم	-8.30079
دا	-8.30128
▁قبرص	-8.30166
اك	-8.30188
▁الحمد	-8.30283
▁التقويم	-8.30485
▁عبار	-8.30506
▁22	-8.30608
جامعات	-8.31454
طلق	-8.31612
▁انو	-8.32051
علي	-8.3234
▁عليك	-8.32482
ساء	-8.3329
وز	-8.33448
از	-8.33875
▁16	-8.34435
▁صامت	-8.34591
▁الحياة	-8.34718
▁عشان	-8.34751
▁انواع	-8.34924
▁يو	-8.34966
▁منها	-8.34974
▁مجموع	-8.35052
ولة	-8.35252
▁حضار	-8.35426
رد	-8.35882
▁بلد	-8.36029
▁الق	-8.36393
4	-8.36563
▁الاردني	-8.36646
▁كيف	-8.3667
ست	-8.36745
▁وما	-8.36793
اب	-8.37362
ظر	-8.37772
0	-8.37789
▁وكان	-8.38113
قضاء	-8.38134
معني	-8.38725
▁15	-8.38892
عرض	-8.38986
▁وين	-8.39038
▁الشبك	-8.39058
▁الكم	-8.39098
ذكر	-8.39198
▁ربي	-8.395
▁الطاق	-8.39501
ائم	-8.39505
قران	-8.39877
▁انجلترا	-8.40447
▁يونيو	-8.40479
▁اوروبا	-8.40535
▁بوتان	-8.40605
▁قص	-8.40797
فة	-8.40966
▁بيانات	-8.40992
▁نصف	-8.41037
كو	-8.41071
▁المفاعل	-8.41292
▁عمان	-8.41343
▁المنطقة	-8.41412
▁حوالي	-8.41513
▁دا	-8.4175
▁تابع	-8.41896
▁وز	-8.42103
▁بت	-8.42632
▁البرنامج	-8.42681
▁سلسل	-8.42719
▁لن	-8.4276
▁الحق	-8.42813
▁عليكم	-8.42921
▁شعب	-8.42968
▁حرف	-8.43005
مه	-8.43171
جي	-8.43584
▁مدار	-8.43719
▁كيميائي	-8.43728
لجنه	-8.43963
▁6	-8.43998
شبه	-8.44169
▁حسن	-8.44173
▁حكم	-8.44338
▁راس	-8.44462
ص	-8.44657
▁بحر	-8.44761
▁كا	-8.45083
يشير	-8.4514
▁بل	-8.45753
▁قطر	-8.46356
▁تا	-8.46422
نوف	-8.46437
▁علينا	-8.46548
▁ضم	-8.46557
مبر	-8.46839
▁الواحد	-8.46912
▁رح	-8.47105
▁مالي	-8.47192
▁مكان	-8.47288
▁للعناصر	-8.4729
▁ثم	-8.475
▁تق	-8.47514
▁الشعب	-8.47643
بين	-8.47654
▁فرع	-8.47751
▁سا	-8.47902
▁احسن	-8.47913
▁اخري	-8.47935
▁امريكي	-8.47973
▁الفيزياء	-8.48157
ابجدي	-8.48202
▁للاس	-8.48272
▁خير	-8.48294
ذرة	-8.48328
▁التالية	-8.48407
▁الرياضيات	-8.4874
قسم	-8.48754
نية	-8.48757
موقع	-8.4909
▁الولاي	-8.49123
▁دائرة	-8.49285
▁وسط	-8.49577
▁وم	-8.49837
رو	-8.49862
▁تفاعل	-8.49869
رات	-8.50065
▁التالي	-8.50213
ميكانيك	-8.50239
▁كيميائية	-8.50661
▁اني	-8.50754
اي	-8.50903
▁ولكن	-8.50919
ظهر	-8.50978
نظرية	-8.51036
▁وه	-8.51784
ساوي	-8.52009
▁اع	-8.52118
▁اليوم	-8.5222
وع	-8.52308
▁مح	-8.5245
ود	-8.52629
▁كثير	-8.52792
▁12	-8.52972
▁الاسم	-8.53171
▁الانترنت	-8.53364
▁بد	-8.53402
▁بريطانيا	-8.5346
▁السفلي	-8.53513
▁فقط	-8.53593
را	-8.53871
شر	-8.53899
▁ايران	-8.53928
▁18	-8.5398
▁يابانية	-8.54293
▁حب	-8.5431
نظام	-8.5432
▁الشمالية	-8.54342
شاء	-8.54388
▁اقليم	-8.54432
▁التفاعل	-8.54666
قط	-8.54808
يك	-8.54996
▁الدو	-8.55
▁نهر	-8.55175
▁كي	-8.55218
▁بو	-8.55274
▁ساحل	-8.5547
روب	-8.55806
كل	-8.55953
وق	-8.5614
هذا	-8.56192
▁البر	-8.56428
ترتيب	-8.56865
وب	-8.56873
▁يت	-8.57013
▁خط	-8.5706
▁سو	-8.57238
▁صار	-8.57687
بة	-8.58232
فتح	-8.58361
رمز	-8.58387
▁امان	-8.58505
زن	-8.58598
عرف	-8.58599
▁الل	-8.58649
▁32	-8.58789
تضم	-8.59228
▁اجعلن	-8.59571
▁عالم	-8.5971
عة	-8.59732
بقي	-8.599
ده	-8.59969
وامت	-8.60158
▁مصر	-8.60166
ياء	-8.60476
▁اغسطس	-8.60507
▁اوهايو	-8.60507
▁افريقيا	-8.60542
▁كتاب	-8.6092
▁الغاز	-8.61156
▁مقياس	-8.61158
دون	-8.61427
▁مقاوم	-8.61542
▁جز	-8.61569
▁عربية	-8.6164
▁ابن	-8.61774
▁ماه	-8.61841
▁عل	-8.61849
بات	-8.6189
سمي	-8.62089
▁الحاسوب	-8.62175
▁الموسيقي	-8.62281
ره	-8.62468
▁شباب	-8.62616
▁الش	-8.62696
▁المدينة	-8.62731
5	-8.62787
المانية	-8.62792
▁الموا	-8.62859
▁تن	-8.62931
وية	-8.6295
قصد	-8.63063
▁اصحاب	-8.63896
▁انك	-8.6424
▁الار	-8.64596
▁قنا	-8.64734
ادر	-8.64774
▁اخر	-8.64891
▁دو	-8.65067
سبب	-8.65079
▁الاب	-8.65174
▁بنت	-8.65219
▁مصطلح	-8.6556
▁تري	-8.65589
حلال	-8.66285
محافظة	-8.66337
جمهورية	-8.66438
شيد	-8.66545
▁بدل	-8.66743
▁المغرب	-8.66834
▁الشمال	-8.66917
▁ولاي	-8.67044
▁الشرقي	-8.67091
▁حال	-8.67171
شئ	-8.67373
نعم	-8.67393
▁الذري	-8.6742
▁خاص	-8.67434
اضافة	-8.67836
▁ده	-8.67855
لو	-8.67961
وف	-8.67975
▁قول	-8.68073
▁عمر	-8.68096
▁17	-8.68163
▁توهوكو	-8.68201
▁تشوبو	-8.68202
▁استونيا	-8.68209
▁الوطني	-8.68526
▁ز	-8.68559
▁البوليمر	-8.68594
▁الثامن	-8.68642
ضيق	-8.68643
▁ملوك	-8.687
▁الرابع	-8.6875
▁درجة	-8.6896
3	-8.69004
▁البحر	-8.69107
▁اردني	-8.69252
رت	-8.69285
▁عنصر	-8.69296
حالة	-8.69479
▁الغربية	-8.69485
ث	-8.69585
لية	-8.69705
▁شركة	-8.69784
▁مد	-8.69834
▁ذرات	-8.70007
رض	-8.70196
اع	-8.70316
▁نفسي	-8.70429
▁فبراير	-8.7054
▁..	-8.70657
ونغ	-8.70748
▁انظ	-8.70787
▁ض	-8.70854
▁كلاب	-8.71199
▁5	-8.72006
دولة	-8.72055
▁السر	-8.72093
سة	-8.72135
▁امام	-8.72201
قرب	-8.72407
فه	-8.72741
▁13	-8.7291
قاطع	-8.73011
الجدول	-8.73304
▁الك	-8.73568
▁تر	-8.73641
▁حي	-8.73733
تو	-8.73878
اله	-8.74089
▁المصا	-8.74135
▁مت	-8.74272
▁كلام	-8.74324
تقبل	-8.7447
▁مج	-8.74496
▁حلقي	-8.74741
▁حرام	-8.74959
▁عادة	-8.7501
با	-8.75032
▁سلطان	-8.75265
نه	-8.7531
▁العرب	-8.75373
▁اثن	-8.75395
▁الجنوب	-8.75603
▁مس	-8.75682
واقع	-8.75812
▁الخط	-8.75821
خلاص	-8.75907
سي	-8.76457
▁اخت	-8.76482
▁كانساي	-8.76533
▁الغريغوري	-8.76534
▁السودان	-8.76536
▁النيجر	-8.76536
▁سبحان	-8.76539
▁2003	-8.76577
تعليم	-8.76693
▁السادس	-8.76789
لت	-8.76917
▁فلسف	-8.76994
غم	-8.77252
▁قر	-8.77264
▁الحكوم	-8.77281
▁تقسيم	-8.77306
▁مارس	-8.77314
▁مصطلحات	-8.77733
▁الوقت	-8.77827
لعناصر	-8.7794
▁المو	-8.78001
عا	-8.78058
▁مر	-8.78112
▁مركب	-8.78228
▁تسمية	-8.7827
▁ابجدي	-8.78289
▁حد	-8.78383
غير	-8.78454
▁الحالة	-8.78467
▁الامريكية	-8.78514
▁رائع	-8.78544
▁عارف	-8.78781
▁بك	-8.78788
تصرف	-8.78834
▁تاريخية	-8.7936
كتب	-8.79366
▁الطاقة	-8.79368
صول	-8.79995
▁قل	-8.80069
▁روابط	-8.80156
▁نوع	-8.80174
جع	-8.80183
صنع	-8.81154
▁14	-8.81392
▁الجد	-8.8164
شان	-8.81744
سام	-8.81752
▁صباحك	-8.82117
ئية	-8.8223
▁قيم	-8.82231
▁كربون	-8.82285
ورة	-8.8253
تقويم	-8.82741
دوله	-8.82775
▁سلم	-8.83386
▁مص	-8.83432
صور	-8.83503
▁اب	-8.83523
افة	-8.83792
صحيح	-8.83821
▁انته	-8.83974
▁اللسان	-8.83985
يت	-8.84169
▁العثماني	-8.8421
▁الخاص	-8.84378
▁القانون	-8.8455
ران	-8.84628
قاط	-8.84695
غة	-8.84717
▁طب	-8.85213
▁نو	-8.85445
▁تسمي	-8.85468
▁الاخري	-8.85513
▁الصندل	-8.85624
▁بومرداس	-8.85625
▁الكريم	-8.85634
▁الازهر	-8.85645
بو	-8.85677
▁شجر	-8.85718
▁السابع	-8.8578
▁فلز	-8.85813
▁مسلم	-8.85959
▁بابل	-8.86
▁يجب	-8.86028
▁البنزين	-8.86037
▁هل	-8.86046
▁الاسنان	-8.86052
▁نارا	-8.86062
وليو	-8.86085
▁ثقاف	-8.86171
▁الزاوي	-8.86242
▁البلاد	-8.86304
▁رجل	-8.86331
▁مين	-8.8639
▁فرنسا	-8.86501
▁اسبانيا	-8.86502
▁اخلاق	-8.86513
صل	-8.8655
▁الفحم	-8.86657
واد	-8.86726
كا	-8.86829
▁ايوبيو	-8.86886
حلوه	-8.86962
▁ايزو	-8.86964
▁الحب	-8.87113
▁مدرس	-8.87139
▁كتير	-8.87152
▁انفس	-8.8718
1	-8.87262
فوق	-8.87271
▁27	-8.87309
▁جبل	-8.87322
▁جميع	-8.87454
▁21	-8.87553
فكر	-8.87696
▁كن	-8.87819
7	-8.87832
▁تت	-8.88057
▁اقتصاد	-8.8832
▁اللاتينية	-8.88439
حرب	-8.88461
▁طاق	-8.88502
▁الجنه	-8.88626
▁الج	-8.88763
▁راح	-8.88826
لف	-8.88958
▁عمرو	-8.89068
الف	-8.89102
نو	-8.89497
▁الاولي	-8.89603
▁رياضي	-8.89753
.....	-8.89954
لين	-8.90041
بل	-8.90088
▁حركة	-8.90181
▁طول	-8.90193
خلص	-8.90291
هذه	-8.90304
▁شكل	-8.90372
مر	-8.9048
▁حالات	-8.9048
▁معا	-8.90516
▁ط	-8.90545
▁عنا	-8.90551
▁بلغ	-8.91033
▁كبير	-8.91194
▁الام	-8.91585
سم	-8.91614
شهاد	-8.91635
▁ارزق	-8.91676
جون	-8.91764
▁المن	-8.91858
▁يلي	-8.91939
▁عليهم	-8.91978
تهم	-8.9203
▁است	-8.92041
▁هم	-8.92226
اح	-8.92247
اكبر	-8.9297
▁ثلاث	-8.92977
▁الوطن	-8.93081
زة	-8.93237
▁اخ	-8.9328
▁وك	-8.9337
▁مثلا	-8.93471
▁جنس	-8.93502
خ	-8.93516
▁تبد	-8.93521
بت	-8.93788
مت	-8.93837
الم	-8.93856
▁حما	-8.93871
بك	-8.93871
علوم	-8.9391
▁العربي	-8.9391
تكامل	-8.94064
▁نون	-8.94121
▁مشر	-8.94195
▁نفسه	-8.94263
▁النبي	-8.94449
الله	-8.94461
دو	-8.94521
ضع	-8.94551
فل	-8.94633
6	-8.94672
مين	-8.94737
التالي	-8.94753
▁الشمس	-8.94894
▁الامريكي	-8.94941
يق	-8.95133
يمة	-8.95304
▁تشوغوكو	-8.95623
▁كليفلاند	-8.95623
▁كيوشو	-8.95623
▁فيكتوريا	-8.95629
▁الزبير	-8.95664
▁المناخ	-8.95683
▁الكويت	-8.95704
▁الاتجاه	-8.95734
▁التاسع	-8.95775
بحث	-8.95793
▁المستوي	-8.95836
▁حساب	-8.9584
ياس	-8.95896
▁المغناطيسي	-8.9594
▁ثنائي	-8.96077
▁البعض	-8.96139
يب	-8.96238
عزيز	-8.96251
▁الاسود	-8.96259
▁ها	-8.9635
▁شهور	-8.96408
▁بما	-8.96475
نهاية	-8.96529
▁المجال	-8.96599
▁تفسير	-8.96609
▁رمز	-8.96675
▁باللغ	-8.96737
▁199	-8.96841
▁مليون	-8.96845
▁كو	-8.9698
مواطن	-8.96996
▁الرئيس	-8.97098
بار	-8.97339
▁صلي	-8.97355
يين	-8.97447
▁تعالي	-8.97502
▁لت	-8.9754
تار	-8.97729
▁نوب	-8.97767
▁ست	-8.97927
فيزياء	-8.97951
▁النوويه	-8.98117
ادي	-8.98148
▁شر	-8.98281
▁عائل	-8.98283
دية	-8.98338
▁فيصل	-8.98428
▁اشي	-8.98602
▁سن	-8.98604
رع	-8.98643
انا	-8.98658
▁الخير	-8.98741
مصطلح	-8.98822
9	-8.99042
مساحة	-8.99053
▁بداي	-8.99063
حدود	-8.99083
▁ادو	-8.9915
▁الوطنية	-8.9915
▁تعلم	-8.99177
لما	-8.99183
نغ	-8.99257
▁وس	-8.99282
▁حول	-8.99334
▁النون	-8.99336
▁موسيقي	-8.99395
▁ث	-8.99408
▁ولد	-8.99455
دخل	-8.99536
▁اعلا	-8.99747
▁الفترة	-8.99761
▁شيخ	-8.99856
ضاء	-8.99948
▁قلوب	-9.00019
رقية	-9.00117
▁طاقة	-9.00139
عبر	-9.00228
الرجال	-9.00232
▁عبر	-9.00239
▁ابدا	-9.00267
جو	-9.00429
▁اقول	-9.00457
فق	-9.00507
▁لنا	-9.00517
▁قال	-9.00536
سط	-9.00562
▁اثر	-9.00648
كر	-9.00663
قرية	-9.01279
▁مركز	-9.01329
▁يقول	-9.01391
▁اليونان	-9.01489
▁وضع	-9.0151
▁جزء	-9.01583
▁واحدة	-9.01702
▁فلسطين	-9.01758
▁وقت	-9.01759
ذي	-9.01813
▁صح	-9.01817
▁بلدية	-9.01951
غطي	-9.01967
▁ذلك	-9.0234
معلومات	-9.02434
▁انها	-9.0252
▁جديد	-9.02645
▁موا	-9.02647
اف	-9.0286
ائط	-9.02968
ظ	-9.0302
▁الاش	-9.03212
▁سوف	-9.03328
عاصمة	-9.03372
▁القاب	-9.03666
▁انجليزي	-9.03791
▁اداري	-9.04213
قة	-9.04241
▁بالم	-9.04469
▁نور	-9.04616
▁بيت	-9.04823
▁الكل	-9.04861
▁الطبيعي	-9.05181
▁رزق	-9.05216
▁الشخص	-9.05416
باط	-9.0561
اهيم	-9.05636
حبك	-9.05703
زاي	-9.05716
▁لاي	-9.05831
الة	-9.05912
▁حلو	-9.05915
اير	-9.05934
نة	-9.06019
تش	-9.06029
تا	-9.06111
▁الغرب	-9.06173
ند	-9.06245
ولو	-9.06425
▁ص	-9.06653
▁الغ	-9.06729
▁الاحتمالات	-9.06734
▁انكلترا	-9.06734
▁كلثوم	-9.06735
▁بواسط	-9.06737
▁الاستوائية	-9.0674
48	-9.06741
▁مايكروسوفت	-9.06753
▁1000	-9.06757
▁2004	-9.06773
▁القاسم	-9.06775
▁الفجر	-9.068
▁فوجي	-9.06828
اث	-9.06836
▁يلامس	-9.06845
▁ساكسونيا	-9.06846
▁الطبيعة	-9.06902
▁الكتاب	-9.06932
▁الث	-9.06934
ــ	-9.06944
▁الايطالي	-9.07056
▁للح	-9.07089
▁العائل	-9.07107
▁العام	-9.0711
▁الحاكم	-9.07125
ماء	-9.07134
▁المع	-9.07144
▁منهم	-9.07177
▁المتوسط	-9.07246
▁المعلم	-9.07289
▁اللفظ	-9.07303
▁النسب	-9.07332
▁ميلادي	-9.07346
▁بكل	-9.07395
قع	-9.0747
▁بالجدول	-9.07652
▁السعودية	-9.07667
▁الاخ	-9.07762
نتشر	-9.07771
▁تش	-9.07941
ثير	-9.07989
▁هال	-9.07999
▁الحمدلله	-9.08126
وخ	-9.08169
مان	-9.08181
▁انسان	-9.08322
▁العاصمة	-9.08369
▁ليش	-9.08408
تعامل	-9.08519
▁وحب	-9.08527
فساد	-9.08583
اق	-9.08593
خزين	-9.08728
▁يخ	-9.08775
حكام	-9.08853
▁والا	-9.08903
▁قليل	-9.08908
▁الفا	-9.08909
مورا	-9.09003
▁الجنوبية	-9.09051
فعل	-9.09062
جز	-9.09127
▁المطر	-9.09185
▁جنو	-9.09224
▁برمجيات	-9.09236
نت	-9.09299
▁سفلي	-9.09332
ادة	-9.09375
زان	-9.09385
حمد	-9.09441
▁الاحم	-9.09539
▁الاداري	-9.09844
▁عليها	-9.09849
▁جمع	-9.09914
نين	-9.09932
▁حوسبة	-9.10057
وت	-9.10057
▁زمن	-9.10073
▁كبيره	-9.10094
▁بجد	-9.10102
▁اخو	-9.10236
▁بايت	-9.10244
قام	-9.10332
زي	-9.10334
تواجد	-9.10498
▁قوي	-9.10582
كه	-9.10864
▁الفرعي	-9.1096
▁مسخره	-9.11069
سويس	-9.11077
▁الحر	-9.11232
حاد	-9.11389
▁عاهات	-9.11651
▁يس	-9.11904
يوم	-9.11963
▁جد	-9.12005
▁اخوان	-9.12076
▁السلام	-9.12177
يمكن	-9.12209
▁اسمه	-9.1221
جر	-9.12599
▁بع	-9.12782
▁مصا	-9.12882
▁لانه	-9.12973
▁نمو	-9.12993
▁نشاط	-9.13072
جند	-9.13144
رحمه	-9.13221
▁الدولي	-9.13486
قيد	-9.13576
يلي	-9.13794
▁هاي	-9.13919
▁صادق	-9.1393
ارد	-9.14062
مع	-9.14133
▁سور	-9.14433
▁تنت	-9.14493
لات	-9.14505
ساعد	-9.14682
▁ار	-9.14699
▁الهند	-9.14791
▁قدم	-9.14843
▁الجه	-9.14874
نطق	-9.14883
▁321	-9.15257
▁اساس	-9.1535
قي	-9.15382
▁المس	-9.15399
▁عم	-9.15443
دول	-9.15649
▁يقص	-9.157
حسين	-9.15764
▁شهر	-9.15807
ائر	-9.15839
▁كله	-9.161
اه	-9.16171
▁جاك	-9.16217
شغل	-9.16485
▁بكر	-9.16517
ثر	-9.16519
▁السابق	-9.16628
نون	-9.16753
▁داي	-9.1676
عادة	-9.17384
صلح	-9.17442
عمل	-9.17567
صلة	-9.17589
▁تنا	-9.17607
▁خلي	-9.17622
▁33	-9.17655
▁صوت	-9.17823
حنا	-9.18
▁التحل	-9.18064
▁المحافظ	-9.18078
جل	-9.18177
موز	-9.18266
كن	-9.18273
▁كر	-9.18287
▁جغرافي	-9.18307
▁نح	-9.18334
▁الشرق	-9.18397
▁بحب	-9.18512
صدر	-9.18564
صير	-9.18585
▁26	-9.18724
▁30	-9.189
▁كث	-9.18944
▁بور	-9.19152
39	-9.19218
▁الهيدروجين	-9.19234
▁سلوفاكي	-9.19234
▁موضوع	-9.19238
▁متصفح	-9.19245
▁ايام	-9.19246
▁اللثوية	-9.19247
▁الخشوع	-9.1925
▁موريتانيا	-9.19257
▁عايش	-9.19269
▁اسوكا	-9.19269
▁الاكوادور	-9.19326
▁كامبر	-9.19327
عنا	-9.19353
▁العزم	-9.19355
▁تجعل	-9.19362
▁مسجد	-9.19366
▁يجعل	-9.19369
▁البويرة	-9.19383
▁العاشر	-9.19396
▁اثار	-9.19411
▁الاربعة	-9.19483
..	-9.19497
عون	-9.19507
▁البيانات	-9.19544
▁متعلق	-9.19555
▁كوريا	-9.19629
▁يقدر	-9.19712
▁للفن	-9.19779
▁لازم	-9.19887
بواب	-9.19901
غلاف	-9.19906
▁طلب	-9.19918
▁انتم	-9.20025
▁قامت	-9.20051
▁صعب	-9.20096
داد	-9.20112
ئة	-9.2012
▁حطين	-9.20201
بعث	-9.20215
▁عشير	-9.20278
يونكس	-9.20289
▁توجيه	-9.20315
▁ويند	-9.20335
▁الاست	-9.20353
عيد	-9.20357
▁24	-9.20411
▁الصف	-9.20587
▁النهايه	-9.20596
▁العظمي	-9.20622
▁اشور	-9.20659
▁بان	-9.20668
3.	-9.207
▁معك	-9.20779
▁قديم	-9.20793
▁خلق	-9.20823
التطبيق	-9.20921
▁الصوت	-9.20926
▁النار	-9.20935
▁انهار	-9.20952
يز	-9.21009
▁مرتبط	-9.21012
كس	-9.21032
يدج	-9.21041
▁ايرلندا	-9.2108
اطئ	-9.211
▁جو	-9.21174
▁بدا	-9.21183
▁طبق	-9.21218
جه	-9.21228
وضح	-9.21269
وان	-9.21348
▁قانون	-9.2137
كوسان	-9.21421
عم	-9.21459
اج	-9.21515
▁اد	-9.21533
حدث	-9.21549
▁لدي	-9.21563
▁الواقع	-9.2158
صر	-9.2166
▁والم	-9.21827
لقياس	-9.21855
كثر	-9.21864
▁زيت	-9.21907
▁مؤ	-9.21938
▁الطبيعية	-9.21953
غو	-9.22042
▁القلب	-9.22115
▁الظهر	-9.22164
▁الفن	-9.22276
▁مشاكل	-9.22312
▁استاذ	-9.2242
ثلاث	-9.22448
زني	-9.22529
▁يثبت	-9.22531
▁اخذ	-9.22709
▁فرح	-9.22811
اده	-9.22853
▁سل	-9.22884
▁نحو	-9.22901
قلب	-9.22983
▁اسس	-9.23064
عود	-9.23067
حكي	-9.23099
▁اسيا	-9.23152
ظاهر	-9.23309
▁غا	-9.23323
رزق	-9.23398
خر	-9.23433
وكي	-9.23493
▁تجد	-9.23513
▁غالب	-9.23563
▁علاق	-9.23606
▁استخدام	-9.23901
فيه	-9.23935
فهم	-9.24005
▁11	-9.24018
رتبط	-9.24108
قطع	-9.24162
▁بم	-9.24188
وه	-9.24289
وض	-9.24448
▁رخ	-9.24568
عين	-9.24733
▁جماع	-9.24823
▁نظري	-9.24828
▁الغار	-9.24847
خليج	-9.24867
صناعة	-9.2493
قد	-9.24997
دها	-9.25088
وك	-9.25101
جميل	-9.25156
▁زع	-9.25201
▁كوكب	-9.25365
▁صغير	-9.2555
سطح	-9.25771
▁هندس	-9.2578
▁شخصية	-9.258
▁رو	-9.25856
الي	-9.25932
احمد	-9.26022
▁ممكن	-9.26037
▁تمث	-9.26114
جة	-9.2619
▁وجه	-9.26204
غلط	-9.26247
كلمات	-9.26252
فينيل	-9.26406
▁قري	-9.26592
هناك	-9.2689
▁ول	-9.26953
نشاء	-9.27051
حيث	-9.27067
▁ضعف	-9.27087
▁كه	-9.27103
▁عز	-9.27105
▁كين	-9.27173
احه	-9.27233
▁الجغرافي	-9.27273
سبة	-9.27338
▁بلا	-9.27428
▁العلوي	-9.27531
ضحك	-9.27605
▁المت	-9.27635
تساوي	-9.27692
▁صناع	-9.277
▁دب	-9.2774
قدر	-9.27794
تشكل	-9.27806
▁يعد	-9.27864
▁بايز	-9.2794
عادل	-9.27947
▁البشر	-9.28319
41	-9.28557
▁ابي	-9.28708
▁نبات	-9.28789
طير	-9.28982
يابان	-9.28997
▁ارن	-9.29142
ظن	-9.2919
ابايت	-9.29208
▁باسم	-9.29268
▁نسال	-9.29356
ينا	-9.29374
▁مفه	-9.29746
▁علوي	-9.29758
تكم	-9.29792
▁مرض	-9.29886
حظ	-9.29895
غني	-9.29904
▁ويب	-9.29906
دور	-9.29915
سون	-9.29933
▁ترك	-9.3013
▁تاكا	-9.30164
اطق	-9.3044
▁فهم	-9.30448
راج	-9.30678
▁اخي	-9.30918
مج	-9.30928
وجه	-9.31221
▁حدود	-9.31264
▁هيئ	-9.31599
ظلم	-9.31638
كره	-9.31707
▁الفرنسي	-9.31756
رج	-9.31884
▁تقو	-9.32145
▁لبنان	-9.32179
▁ذو	-9.32203
شتغل	-9.32207
▁193	-9.32366
▁ظ	-9.32404
اكيد	-9.32457
▁واق	-9.32568
صف	-9.32577
▁واس	-9.3264
▁فكر	-9.32707
▁نق	-9.32728
جمل	-9.32732
ولوجيا	-9.32734
امورا	-9.32816
منا	-9.32911
▁مما	-9.33062
▁بلدي	-9.33068
▁كلمات	-9.33087
ضيع	-9.33087
▁الغربي	-9.33159
خذ	-9.3316
▁29	-9.33222
ذا	-9.33292
▁يع	-9.33294
▁الحجر	-9.33353
ممكن	-9.33376
▁متوسط	-9.33432
▁الاس	-9.33443
غبي	-9.33455
▁الكهربائية	-9.3352
▁بوركينا	-9.3352
▁فوجيوارا	-9.33522
▁صربيا	-9.33524
▁تورنت	-9.33524
▁1956	-9.33529
▁الوكيل	-9.33531
▁2006	-9.33533
▁طارق	-9.33536
▁1964	-9.33554
▁اوموري	-9.33561
▁1992	-9.33565
▁بحيرات	-9.33566
▁كمومية	-9.33582
▁مختلف	-9.33586
▁2000	-9.33602
▁ملاحظ	-9.33607
راق	-9.33617
▁ايطاليا	-9.33636
▁استراليا	-9.33644
ورد	-9.33662
▁تعليم	-9.33697
▁المركزية	-9.33704
▁سيناء	-9.33707
رون	-9.33773
▁اويتا	-9.33802
▁يعتبر	-9.33893
توام	-9.33916
▁تركيا	-9.33956
▁فاضي	-9.33998
▁مولد	-9.34024
جهاز	-9.34056
المزار	-9.34069
▁متر	-9.3408
▁يكتب	-9.34178
▁الطريق	-9.34202
▁رسول	-9.34262
▁اهله	-9.34263
▁العنصر	-9.34278
▁9	-9.34289
قبة	-9.34296
▁باول	-9.34329
▁يعمل	-9.34333
▁بح	-9.34392
▁القرار	-9.34533
▁السكان	-9.34559
▁صلات	-9.34632
▁عادي	-9.3465
▁الشيخ	-9.34674
▁شعور	-9.34688
نوب	-9.34733
▁المقاطع	-9.34733
▁مرو	-9.34809
▁معينة	-9.34813
▁يستعمل	-9.34817
ونية	-9.3485
▁يق	-9.34883
▁الكلية	-9.34933
▁ابناء	-9.34937
بارك	-9.34963
▁عد	-9.35071
▁اسلامية	-9.35346
▁كذا	-9.35412
▁خرب	-9.3543
▁حم	-9.35432
▁الجزيء	-9.35457
▁فرو	-9.35544
تز	-9.35698
▁داخل	-9.35762
▁يصل	-9.35783
▁مدي	-9.35943
▁قام	-9.36005
▁كاتب	-9.36052
▁ياماغوتشي	-9.36094
▁ملفات	-9.36101
▁سياسة	-9.36125
سواك	-9.36127
▁دكتور	-9.36171
قيم	-9.36174
▁شيغا	-9.36285
مادة	-9.36291
▁كثيرا	-9.36305
▁حا	-9.36423
▁بعدين	-9.36473
▁مكة	-9.36503
▁الاسلامية	-9.36537
▁المعلومات	-9.36583
▁طبيعي	-9.36611
▁واله	-9.36633
▁اسال	-9.36963
▁سياح	-9.36998
▁وان	-9.37026
لد	-9.37098
ميز	-9.37196
▁الشام	-9.372
▁ولاد	-9.37417
شديد	-9.37562
▁جغرافيا	-9.37628
خلف	-9.37808
▁عنده	-9.37819
▁احلا	-9.37939
▁سلط	-9.37977
بعد	-9.38193
▁تس	-9.38273
▁مكون	-9.3862
نشور	-9.3876
▁خيرا	-9.38762
خرج	-9.38778
▁تعد	-9.38876
▁غيني	-9.39017
غات	-9.39031
ائق	-9.39127
وح	-9.39237
دعي	-9.39444
8	-9.3946
سعة	-9.39513
24	-9.39545
▁اهم	-9.39679
عديد	-9.39707
بير	-9.39753
▁فتح	-9.39854
رك	-9.39867
▁الخب	-9.40028
اخبار	-9.40043
▁ممثل	-9.40139
▁فيزيائية	-9.40158
▁ولو	-9.40174
▁الكرة	-9.40247
▁النو	-9.40251
صادق	-9.40269
كلام	-9.40482
▁والذ	-9.40553
تعمل	-9.40609
راكر	-9.40633
ؤل	-9.407
▁حدا	-9.4085
وات	-9.41148
لام	-9.41252
لاء	-9.41263
▁حاجه	-9.41404
▁هاد	-9.41485
حد	-9.41492
كلمه	-9.41497
سو	-9.41542
▁الذ	-9.41599
جزء	-9.41803
وقود	-9.42013
جيش	-9.42061
▁فا	-9.42127
يها	-9.42191
▁ابري	-9.42212
▁النج	-9.4229
▁الجوي	-9.4239
▁افضل	-9.424
▁بعمل	-9.42737
اغاني	-9.42917
▁وقود	-9.42921
▁فلا	-9.42984
▁وسائ	-9.42996
▁وتق	-9.43133
▁الهات	-9.43347
جزيء	-9.43361
بدا	-9.43452
قبل	-9.43574
▁هناك	-9.43953
عل	-9.44093
بولو	-9.44118
زم	-9.4413
مجال	-9.44216
بوت	-9.44268
▁سلام	-9.44313
علاقات	-9.44343
اليم	-9.44438
بها	-9.44506
لان	-9.44517
بيض	-9.44784
▁الجزيئي	-9.44797
ساكي	-9.44807
▁اذ	-9.44863
▁ظاهر	-9.44916
▁ارجو	-9.45024
▁احس	-9.45177
ضم	-9.45508
رفع	-9.45577
يش	-9.45696
حلف	-9.45704
▁النع	-9.45708
▁دير	-9.45888
▁فيلم	-9.45962
▁اسو	-9.46159
بس	-9.46168
▁تج	-9.46192
▁بني	-9.46223
▁التد	-9.46252
▁عاما	-9.46619
شت	-9.46721
ذب	-9.46787
عد	-9.4685
جد	-9.46878
▁وهذ	-9.46893
▁ولم	-9.46996
▁وبال	-9.47045
▁راي	-9.47278
فت	-9.47309
▁تخ	-9.47375
التي	-9.47421
.......	-9.47438
جود	-9.47448
رقم	-9.47517
▁كولون	-9.47576
▁كلها	-9.47642
▁النش	-9.4765
امريكا	-9.478
▁عديد	-9.48011
▁دعا	-9.48049
▁غر	-9.48252
عاء	-9.48257
▁بروميد	-9.48335
حب	-9.48399
▁القديم	-9.48528
لمان	-9.48532
نات	-9.48716
000	-9.48955
▁الصالح	-9.49095
صة	-9.49096
▁مؤسس	-9.49148
▁الشمسي	-9.4929
▁ارحم	-9.4939
عظمي	-9.49435
▁شها	-9.49441
▁اسلامي	-9.49475
▁الثلاث	-9.49607
لله	-9.49751
▁الوزن	-9.49795
▁كتب	-9.49943
اما	-9.5007
يزيد	-9.50087
خصائص	-9.50101
ديكا	-9.50137
▁يد	-9.50141
وقات	-9.50162
▁باراغواي	-9.50187
▁الاحصاء	-9.50187
▁شيكوكو	-9.50187
▁صندل	-9.50189
▁المساجد	-9.50189
▁الطلاب	-9.5019
▁مستوطن	-9.50191
▁الوسيط	-9.50191
▁1882	-9.50197
▁الفقير	-9.50205
▁الغرام	-9.50206
تبع	-9.50228
▁لكتاب	-9.50235
▁الشفوي	-9.50257
▁فقير	-9.50272
▁فلاش	-9.5028
▁وارزقن	-9.50284
تماسك	-9.50287
▁تخسر	-9.50296
▁فاسو	-9.50305
▁وتوكل	-9.5031
▁كندا	-9.50315
▁تاخذ	-9.50347
▁رومانيا	-9.50351
▁العضوية	-9.50374
▁العليا	-9.50378
▁جون	-9.5039
▁القدماء	-9.50403
▁عباد	-9.50411
▁متاكد	-9.50482
▁هنري	-9.50491
▁يستطيع	-9.50502
▁نوويه	-9.50508
▁بينهما	-9.50595
▁فوكوي	-9.50631
▁الضغط	-9.50636
▁المطلق	-9.50649
كاليف	-9.50662
▁العقل	-9.50678
ضائق	-9.50743
▁وهابي	-9.50745
▁الامير	-9.50789
سلحة	-9.50894
▁المسلم	-9.50895
▁70	-9.50967
▁سابقا	-9.51005
▁سوق	-9.51052
▁التحكم	-9.51053
▁الشباب	-9.5106
امور	-9.5109
▁تقنع	-9.51111
مدينة	-9.51141
▁الفاينيل	-9.51188
▁شبك	-9.51207
▁معسكر	-9.51221
▁الجزيئات	-9.51231
▁الجنوبي	-9.51258
اسعار	-9.51291
▁افلام	-9.51333
▁الكبيرة	-9.51334
▁الاخير	-9.51335
▁الحديثة	-9.51347
▁ماري	-9.51379
▁يعلم	-9.5138
▁ادم	-9.51425
▁موقع	-9.51441
▁اهدي	-9.51478
طان	-9.51485
▁مجن	-9.51502
▁الاو	-9.51569
▁لابس	-9.51663
▁فرانس	-9.51699
▁كبي	-9.51745
▁حل	-9.51758
يعتقد	-9.51787
لسوف	-9.51787
▁فانه	-9.51799
▁سليم	-9.51847
فا	-9.51865
حادي	-9.51892
▁تك	-9.5191
دارية	-9.51929
▁انتاج	-9.51946
▁القدم	-9.52031
ونغوتا	-9.52061
▁مصرية	-9.52135
جور	-9.52146
▁شاه	-9.52173
▁ويت	-9.52296
روسيا	-9.52329
▁البعث	-9.5234
زله	-9.52352
▁عنك	-9.52417
▁الاسبانية	-9.52438
▁اكيتا	-9.52465
عتبر	-9.52522
علم	-9.52533
▁سياسية	-9.52586
▁عنه	-9.52592
▁يرضي	-9.52603
▁ارج	-9.5268
دير	-9.52782
▁الرابطة	-9.52796
▁توابع	-9.52869
اعي	-9.52914
▁القوا	-9.5294
▁سنه	-9.52954
عهد	-9.53038
▁صق	-9.53039
▁اجل	-9.53064
حداث	-9.53133
عظم	-9.53156
مو	-9.53185
يني	-9.53302
▁غيفو	-9.53318
▁يعطي	-9.53331
▁القديمة	-9.53425
▁ضد	-9.5343
▁لاعب	-9.5343
▁مرسوم	-9.53452
▁حاكم	-9.53485
▁باسكال	-9.53495
▁عقد	-9.5363
▁الكتروني	-9.53726
تاد	-9.53836
▁مهد	-9.53845
▁ذرتي	-9.53847
فضل	-9.53857
باين	-9.53864
▁وعل	-9.5387
▁قرار	-9.53985
▁رقم	-9.53985
▁فرنسية	-9.54016
وري	-9.54079
وفا	-9.54146
▁100	-9.54169
▁السي	-9.54216
▁السو	-9.54244
ليس	-9.5425
▁يشكل	-9.54255
معدل	-9.54332
لقد	-9.54342
▁جمال	-9.54545
▁الفرنسية	-9.54609
برت	-9.54625
طوال	-9.54637
▁وسيط	-9.54772
هتز	-9.548
▁شين	-9.54814
▁انتا	-9.5484
▁اثنين	-9.54849
رف	-9.5502
▁يكرم	-9.55148
▁سابقة	-9.55221
▁بنقط	-9.55321
صدق	-9.55471
ستعمل	-9.55477
جديدة	-9.55499
▁لديه	-9.55503
اوي	-9.55549
▁باب	-9.55554
وذ	-9.5567
▁كنا	-9.55815
▁يح	-9.55833
▁هدف	-9.55937
▁الخبر	-9.56221
▁العا	-9.56369
هيدي	-9.56395
▁تافه	-9.56396
افضل	-9.56419
▁خامل	-9.56447
عظيم	-9.56505
▁خواص	-9.56528
▁مقر	-9.5655
وريين	-9.56588
حاجه	-9.56683
▁طيب	-9.56765
▁تحويل	-9.56829
▁سماع	-9.56852
▁مك	-9.56922
▁ولك	-9.57064
نها	-9.57081
باء	-9.57101
▁الجو	-9.57131
جزائرية	-9.57153
ريك	-9.5716
رابطة	-9.57165
▁تاس	-9.57295
▁الجامع	-9.57535
احد	-9.5759
▁الجدا	-9.57628
▁يش	-9.57669
▁الثق	-9.57743
لكم	-9.57987
▁زوج	-9.58046
تعبير	-9.58053
▁عنها	-9.58062
▁كالف	-9.58176
▁منك	-9.58367
▁دراس	-9.58393
▁ماسا	-9.58467
▁رضي	-9.58473
وجود	-9.58506
ائ	-9.58651
▁الشه	-9.58702
▁قاعد	-9.58798
يسر	-9.59083
▁القص	-9.59086
▁عندك	-9.59251
▁رين	-9.59297
▁اغلب	-9.59327
00	-9.59536
▁فن	-9.59545
مشكله	-9.59675
▁الهكس	-9.59729
عصر	-9.59767
▁شمالا	-9.59794
وتوكو	-9.59845
50	-9.59861
دم	-9.59941
▁رفع	-9.60098
ليف	-9.60153
▁المقطع	-9.60164
▁الرياض	-9.60215
▁وطني	-9.60241
▁نش	-9.60259
▁عملت	-9.60281
▁شمس	-9.60312
▁باس	-9.60365
لمدينة	-9.60668
توب	-9.60701
سه	-9.60756
▁صا	-9.608
الحياه	-9.60812
▁اض	-9.60824
روس	-9.61072
▁عراق	-9.61123
مود	-9.61187
كوكب	-9.61198
اصب	-9.61211
▁بقي	-9.61238
لال	-9.61239
حسن	-9.61329
▁ورح	-9.61341
▁السلا	-9.61362
يجي	-9.61415
نشاط	-9.61425
▁خيا	-9.61483
▁مقت	-9.61535
▁مافي	-9.61537
▁البرتغال	-9.61652
▁جاي	-9.61687
سائل	-9.61884
تر	-9.61958
قيمته	-9.61976
▁يقو	-9.62051
▁الحل	-9.62239
▁النفس	-9.62362
مني	-9.62403
اشكال	-9.62429
▁الفر	-9.62532
شيء	-9.62533
تم	-9.62659
اض	-9.62715
خبار	-9.62907
▁ارض	-9.62947
▁محا	-9.6297
▁رائح	-9.63069
رين	-9.63289
ابي	-9.63296
قاعدة	-9.63304
▁ناكا	-9.63343
حسب	-9.6335
▁القو	-9.63432
اط	-9.63586
▁زين	-9.63641
▁حدث	-9.63663
سكو	-9.63677
الات	-9.63697
ؤ	-9.63918
قراء	-9.63936
ليون	-9.64046
▁بنات	-9.64057
▁الاله	-9.64098
▁اقتصادي	-9.64182
▁الصو	-9.64289
51	-9.64311
وانا	-9.64377
▁الاقل	-9.64455
▁دولي	-9.64495
جلس	-9.64631
▁الوف	-9.64649
سكي	-9.64708
حبه	-9.64736
تلك	-9.64767
▁وجل	-9.64957
ولد	-9.65036
يرة	-9.65125
وماس	-9.65182
▁خليج	-9.65185
▁محب	-9.6523
شابه	-9.65445
جزيرة	-9.655
جامعه	-9.65612
حه	-9.65636
▁بش	-9.65695
عت	-9.65747
▁امين	-9.65831
تشار	-9.65857
▁العادي	-9.65979
▁نف	-9.66029
▁كوي	-9.66078
يكي	-9.66339
حراميه	-9.66352
▁مب	-9.66402
▁الفار	-9.66526
68	-9.66644
▁قاد	-9.66749
طلع	-9.66917
▁الاقتصاد	-9.66954
▁اعدا	-9.67007
▁طرف	-9.67078
انغ	-9.67284
▁اصل	-9.6743
اري	-9.67604
▁المرا	-9.67678
راب	-9.67696
ائك	-9.67889
مصفوفات	-9.67951
▁جه	-9.67961
▁للد	-9.68163
صار	-9.68164
▁الرئيسي	-9.68307
ستون	-9.68369
حركة	-9.68404
تجاه	-9.68429
▁هنا	-9.68457
تفاعل	-9.68473
الك	-9.68484
▁اليه	-9.68508
طة	-9.68528
▁الحيوي	-9.6856
هر	-9.68625
▁الكيميائي	-9.68687
كتشف	-9.68782
ليد	-9.68882
نس	-9.69014
عر	-9.69015
بناء	-9.69016
▁طلاب	-9.69028
▁المجموع	-9.69065
▁السعودي	-9.69083
▁سياسي	-9.69186
▁صر	-9.6924
قه	-9.69294
داي	-9.69392
▁كانتو	-9.69446
وزن	-9.69488
▁مف	-9.69748
▁28	-9.69886
▁لانو	-9.69919
بال	-9.69968
▁يهدين	-9.70005
17	-9.70006
▁الحلق	-9.70047
بق	-9.70062
وارد	-9.70101
شوف	-9.70104
▁الامام	-9.7013
كسونيا	-9.70176
▁الدنمارك	-9.70187
▁بالانقراض	-9.70187
▁نيويورك	-9.70187
تلفزيون	-9.70187
▁الالتزام	-9.70187
▁تشرشل	-9.70187
▁بلجيكا	-9.70187
▁المستعان	-9.70187
▁اليعاقبة	-9.70187
▁الراينوستفاليا	-9.70188
▁معزولة	-9.70189
▁مسبحة	-9.7019
▁رخيص	-9.70191
▁اكاديمي	-9.70192
▁ايواته	-9.70193
▁الاوروبي	-9.70195
▁واقع	-9.70195
▁اباتشي	-9.70199
▁الكونغو	-9.70201
▁المعروف	-9.70203
▁فوكوشيما	-9.70205
▁صاحب	-9.70207
▁2011	-9.7021
▁موبتي	-9.70211
▁انتباه	-9.70213
▁يوسف	-9.70217
▁ايجابي	-9.70217
▁2007	-9.70219
▁الكراكر	-9.70221
مفعول	-9.70224
▁ناقص	-9.70227
▁سامري	-9.70228
▁1999	-9.70229
▁العقاب	-9.70229
▁1960	-9.70232
▁سوغا	-9.70236
▁كويتية	-9.7024
▁نتيج	-9.70244
▁خالد	-9.70263
▁مقدار	-9.70265
▁يرحم	-9.70276
65	-9.70278
▁ديراك	-9.7028
▁احصاء	-9.70289
▁كروز	-9.7029
▁الصلب	-9.70295
▁يستحق	-9.70317
▁موسوع	-9.70319
▁الاطفال	-9.70331
▁ديربي	-9.70332
▁الاسراء	-9.70332
▁الايراني	-9.70337
▁الكحول	-9.70364
▁كينكي	-9.70368
▁الانحراف	-9.7037
▁مساحتها	-9.70375
▁بول	-9.70402
▁شايف	-9.70443
63	-9.70455
▁بولونيا	-9.70482
▁اختراعا	-9.70484
صرف	-9.70485
▁الشفة	-9.70512
اذ	-9.70526
▁وق	-9.70536
▁حجم	-9.70538
▁لاحق	-9.70544
▁الذاتي	-9.70584
▁هكس	-9.7061
▁والفيزياء	-9.70614
▁علاج	-9.70635
▁عج	-9.7068
طعام	-9.7068
▁السكر	-9.70689
▁تيم	-9.7071
▁هذول	-9.70715
▁الكلب	-9.70723
▁معاهد	-9.70749
اقة	-9.70768
▁المؤ	-9.70786
▁المياه	-9.70792
▁تضار	-9.70796
▁الشا	-9.70801
▁الاحداث	-9.70979
▁الكثير	-9.7099
▁مليان	-9.7102
▁مطرب	-9.71021
▁التابع	-9.7106
يجابايت	-9.71072
▁العلن	-9.71075
شار	-9.71088
▁المعلاة	-9.71104
▁الوسط	-9.71145
▁الامارات	-9.71153
▁الطرق	-9.71156
▁تقدر	-9.71164
▁كده	-9.71176
▁الرئة	-9.71187
▁الحلقية	-9.71207
▁قابل	-9.71217
▁السلطان	-9.71252
▁ريح	-9.71267
▁مواق	-9.71289
▁الشمالي	-9.7129
▁فحم	-9.71343
▁دبليو	-9.7136
▁المسافة	-9.71392
▁رابع	-9.71404
ولاي	-9.71418
73	-9.71426
▁الحضار	-9.7147
▁كهربائية	-9.7156
▁مستقيم	-9.71563
▁فوكوكا	-9.71574
▁ثالث	-9.71604
▁ومدي	-9.71625
▁تصنيع	-9.71654
▁توياما	-9.71657
▁الكسر	-9.71735
▁متفائل	-9.71741
▁هيراكاتا	-9.71751
▁توتوري	-9.71752
▁يرفع	-9.71805
▁واكاياما	-9.71809
▁يبارك	-9.71863
▁الغين	-9.71915
▁السياح	-9.71954
▁اصلا	-9.71974
مناسب	-9.71977
▁الموصل	-9.71998
▁وادب	-9.72003
▁مفاعل	-9.7201
▁المستخدم	-9.72074
وني	-9.72088
طبيب	-9.72091
▁بالن	-9.7211
▁1,	-9.72188
عاتيه	-9.72218
▁عوام	-9.72244
▁التقسيم	-9.7228
▁والعش	-9.72334
▁زمان	-9.72342
ترابط	-9.72343
هدف	-9.72363
▁الجمل	-9.7238
▁القاعدة	-9.7239
طن	-9.72413
▁اوكافان	-9.72426
▁يحمل	-9.72427
▁لاحظ	-9.7245
▁اشتغل	-9.72462
▁يست	-9.72535
▁سانت	-9.72546
كسر	-9.72562
▁الذرات	-9.72578
▁سان	-9.72676
▁سكر	-9.72737
▁فيتنام	-9.72773
▁الفي	-9.72843
▁صناعية	-9.72851
▁برج	-9.72869
داء	-9.72934
▁خادم	-9.72987
▁موجود	-9.73186
▁اختر	-9.73202
وضع	-9.73205
▁عسكري	-9.73224
سريع	-9.73257
خدمات	-9.73283
جانب	-9.7331
ينتج	-9.73328
يير	-9.73335
▁التفا	-9.73353
▁يحب	-9.73503
▁اجهاد	-9.73507
نبرغ	-9.73509
▁الاقتصادي	-9.73527
▁مرور	-9.73574
▁تاكايو	-9.73591
سكين	-9.73616
▁يهدي	-9.73623
▁قياد	-9.73662
رجو	-9.73773
▁جي	-9.73792
▁مصير	-9.73926
مانيا	-9.73964
▁مخ	-9.73964
كلاب	-9.73976
▁كيوتو	-9.73981
▁بنما	-9.74161
▁الثور	-9.74178
▁صغيرة	-9.74181
▁اش	-9.74193
▁يطلع	-9.74208
امك	-9.74214
▁قدر	-9.74214
▁قريب	-9.74219
▁الانث	-9.74245
▁التاريخ	-9.74309
▁القار	-9.74327
▁المكان	-9.74368
▁تعرف	-9.74401
عاش	-9.74402
روابط	-9.74572
▁مائية	-9.74583
▁نفسها	-9.7459
▁ثبت	-9.74603
▁فقر	-9.74651
جيب	-9.74719
▁جذ	-9.7474
▁الحقيق	-9.74797
▁الدراس	-9.74802
▁نس	-9.74806
▁العلم	-9.74809
انه	-9.7481
الحرب	-9.7481
▁مقدم	-9.74857
غر	-9.74864
▁اخد	-9.75014
▁اتش	-9.7504
وال	-9.75065
ومبي	-9.75121
بريطاني	-9.75278
▁مقا	-9.75309
ربون	-9.75404
كامل	-9.75515
▁شرقا	-9.75654
اخضر	-9.75738
▁الفيديو	-9.75792
▁تطبيق	-9.75825
رس	-9.75842
صمت	-9.75866
▁اج	-9.76115
خلي	-9.76213
▁الشرقية	-9.76239
مرة	-9.76244
جم	-9.76292
▁فرق	-9.7632
فصل	-9.76357
زب	-9.76365
▁شا	-9.76379
▁يجي	-9.76483
▁الكو	-9.76516
▁احب	-9.76571
تطوير	-9.76691
شوفه	-9.76702
▁خاصة	-9.7678
▁الصفح	-9.77058
او	-9.7709
▁عندهم	-9.77137
▁امرا	-9.77203
▁الموت	-9.77234
▁رجال	-9.77253
قف	-9.7747
سميت	-9.77516
▁حقيق	-9.77572
▁بابا	-9.77645
▁حيات	-9.77661
خار	-9.77671
حدد	-9.77772
امت	-9.77814
▁نقط	-9.77851
بسيطة	-9.77858
واب	-9.77881
▁روبي	-9.77896
مس	-9.77946
سار	-9.7795
▁دم	-9.77974
▁زب	-9.77981
▁وش	-9.78033
▁مرة	-9.7806
▁النور	-9.78124
▁ضرب	-9.78142
▁شير	-9.78147
سير	-9.78151
انجليزية	-9.78169
▁ربيع	-9.78338
▁البداي	-9.78362
روج	-9.78397
▁السلف	-9.78401
▁شخصي	-9.78442
سيوم	-9.78459
مصلحة	-9.78476
نفس	-9.7871
▁البشري	-9.78712
حالات	-9.78734
سا	-9.78844
▁ساغا	-9.78932
▁اسرائيل	-9.79015
اهل	-9.79019
▁جزي	-9.79387
▁الض	-9.79454
كول	-9.79497
▁المنا	-9.79532
درس	-9.79581
بد	-9.79651
▁مغناطيس	-9.79687
▁اجتماع	-9.79702
▁اكت	-9.79734
47	-9.79735
زل	-9.79811
▁لانك	-9.7985
ترون	-9.79909
▁البو	-9.79911
احلي	-9.7994
بيه	-9.79954
▁نت	-9.79963
كراي	-9.80055
سترا	-9.80166
حدة	-9.80186
زف	-9.80191
▁شف	-9.80322
▁البل	-9.80334
▁اجه	-9.8046
▁الاد	-9.80607
ليام	-9.80676
▁مختلفة	-9.80718
فو	-9.80739
سرع	-9.80748
تلة	-9.80757
▁صدق	-9.80773
ييس	-9.80893
ضرب	-9.80895
التخلف	-9.80918
طول	-9.81124
▁مستع	-9.81133
تون	-9.81177
غي	-9.81225
▁ظلم	-9.81275
▁شكر	-9.81341
▁وف	-9.8135
▁محط	-9.81374
▁المز	-9.81407
تحف	-9.81494
متر	-9.81519
الذي	-9.81559
لع	-9.8165
مك	-9.81729
▁التر	-9.81741
▁دون	-9.81772
جاهل	-9.81773
حتاج	-9.81793
فيزيائية	-9.81795
▁فت	-9.81851
▁ثلاثة	-9.81877
عاد	-9.81887
لالكترون	-9.82041
ناء	-9.8206
▁للم	-9.82125
حي	-9.82147
▁امر	-9.82254
▁يوشي	-9.82278
▁الاح	-9.82306
صبح	-9.8237
واصف	-9.82503
▁ماركي	-9.82603
▁نيت	-9.82645
فضاء	-9.82727
▁ينعم	-9.82732
ونات	-9.82747
يوناني	-9.8285
تصر	-9.82853
▁السل	-9.82866
▁اسا	-9.82885
▁اليمن	-9.82897
▁مق	-9.82939
مور	-9.82979
عيش	-9.83013
دنا	-9.83253
وريكو	-9.83363
خد	-9.83384
فض	-9.83453
▁اثري	-9.83482
▁شبكة	-9.83535
حة	-9.83537
▁بري	-9.83538
طله	-9.83641
▁القر	-9.83699
منع	-9.83884
يقويك	-9.83946
▁الهجري	-9.84031
▁تعب	-9.84148
▁حيا	-9.8416
نغا	-9.84287
▁اغا	-9.84344
شتاد	-9.84355
راس	-9.84453
فهو	-9.84455
▁الحرا	-9.84463
▁لمن	-9.84467
اوساكا	-9.8447
زح	-9.84471
▁غب	-9.84537
▁الشاب	-9.84626
▁وعند	-9.847
لون	-9.84742
▁حرامي	-9.84775
كيلوبايت	-9.84833
▁وعاصمته	-9.84852
شيخ	-9.84897
دائرة	-9.84936
واحي	-9.84958
اكي	-9.84997
جميع	-9.85046
▁النحاس	-9.85118
هج	-9.85142
حق	-9.85256
واسعة	-9.85288
كينو	-9.85295
جهن	-9.85395
▁جب	-9.85397
▁خصوص	-9.85424
▁برمجي	-9.85596
▁المصفوف	-9.85606
ولي	-9.85756
▁الو	-9.85936
▁برا	-9.8597
▁حماي	-9.86004
اسرائيلي	-9.86045
▁جن	-9.86124
▁را	-9.86145
حقيق	-9.8623
▁نبيل	-9.86231
▁صبح	-9.86276
▁المف	-9.86337
▁الامان	-9.86509
▁الر	-9.86524
استخدام	-9.86539
كائن	-9.86572
▁اعل	-9.86641
انس	-9.86706
▁حق	-9.86727
▁كون	-9.86727
▁الفرع	-9.8677
اشجار	-9.86784
تقنية	-9.86839
ثابت	-9.86846
فون	-9.86863
مسخره	-9.86865
نك	-9.86954
موند	-9.86961
43	-9.87115
▁وتم	-9.87194
خواص	-9.87203
مختلفة	-9.8722
▁تراي	-9.87284
▁كال	-9.87305
عملية	-9.87328
▁كاتا	-9.87357
وطنية	-9.87395
▁خلص	-9.87566
▁النفط	-9.87659
نفخ	-9.87714
▁تي	-9.87794
▁الطبق	-9.8785
▁مست	-9.8785
▁اليابانية	-9.8785
نيوتن	-9.87974
▁كامل	-9.88006
ميدان	-9.8817
مل	-9.88171
مرات	-9.88198
قل	-9.88249
▁شب	-9.88265
جنه	-9.88314
طين	-9.8838
لق	-9.88436
▁املا	-9.88481
▁ممثلو	-9.88576
دين	-9.8869
نتخب	-9.88715
16	-9.88743
▁كلب	-9.88825
▁يكر	-9.89177
ملة	-9.89246
40	-9.89248
مثال	-9.89262
▁الاك	-9.89275
▁يحت	-9.8935
دوراني	-9.89387
اعر	-9.89467
ضعف	-9.895
▁يوج	-9.89586
▁الحرام	-9.89656
حياه	-9.89662
▁وث	-9.89888
غيل	-9.89904
▁البح	-9.89948
ستاف	-9.90031
▁31	-9.90072
ضي	-9.90138
▁ادا	-9.90156
تقدم	-9.90161
لدلال	-9.90188
53	-9.90208
الانسان	-9.9025
▁خل	-9.90491
ايتشي	-9.90839
يوشي	-9.90899
التكنولوجيا	-9.91077
انية	-9.91343
عاهات	-9.91587
قلوب	-9.91667
تس	-9.91717
عي	-9.9175
فريق	-9.91932
▁ماك	-9.92159
اغفر	-9.92168
▁دوا	-9.92191
مص	-9.92213
▁تف	-9.92238
▁صلا	-9.9225
فرح	-9.9246
جهك	-9.92468
يكون	-9.92468
طر	-9.92473
ترضي	-9.92586
▁جيغ	-9.92591
▁بط	-9.92612
▁الدم	-9.92625
▁وع	-9.92731
▁مسط	-9.92736
▁اغان	-9.92823
▁مقطعي	-9.92855
▁بالا	-9.92862
الاضافة	-9.9297
▁الكمومي	-9.93025
▁مهم	-9.93029
▁الرومان	-9.93033
▁رئ	-9.93082
▁خري	-9.93082
عاف	-9.93104
نيوم	-9.9315
حركه	-9.93275
وين	-9.93363
▁الحديث	-9.93411
▁الكترون	-9.93418
▁الكبير	-9.93519
▁الصيغ	-9.93527
واك	-9.9354
▁25	-9.93654
اول	-9.93663
▁فتر	-9.93692
▁لتكو	-9.937
▁الهاشمي	-9.93785
ربي	-9.93786
▁ادخ	-9.93833
▁عربي	-9.93846
ختلف	-9.93873
شعوب	-9.93981
ونهم	-9.94002
▁شار	-9.9401
▁جزائر	-9.94016
▁الاتصال	-9.9409
▁لقب	-9.94232
▁العاه	-9.94359
كت	-9.94632
▁الصح	-9.94652
طع	-9.94667
▁الهيدروكربون	-9.94676
▁ومخ	-9.94676
ستطيع	-9.94721
▁ايوب	-9.94818
لاند	-9.9487
تباين	-9.94936
▁كهربائي	-9.95057
▁ينت	-9.95107
▁البولي	-9.95185
▁غواتيمالا	-9.95187
▁كوليكورو	-9.95187
▁للاشتعال	-9.95187
▁يتكلمون	-9.95187
▁دمشق	-9.95187
▁سيكاسو	-9.95187
▁شرلبون	-9.95187
▁فرديناند	-9.95187
▁ميازاكي	-9.95188
▁ديسمبر	-9.95188
▁الكهرباء	-9.95189
▁المكرمة	-9.95189
▁الفرفوري	-9.9519
▁حائزو	-9.9519
▁النقاش	-9.95191
زجاج	-9.95192
▁المحتلة	-9.95192
برومو	-9.95193
▁العريض	-9.95195
▁الالكينات	-9.95195
▁1383	-9.95197
▁الموسوع	-9.95202
▁مسابق	-9.95204
▁اشتاق	-9.95205
▁والمل	-9.95212
▁بولندا	-9.95213
▁مارادي	-9.95216
▁زوايا	-9.95216
▁ثانيه	-9.95219
▁الشركات	-9.95221
▁1928	-9.95224
▁الحنجر	-9.95227
1671	-9.95236
▁فضيح	-9.95237
▁التسمية	-9.9524
تمييز	-9.9524
▁النسخ	-9.95241
▁اسلوب	-9.95245
▁جمورة	-9.95255
▁197	-9.95256
▁الداخلي	-9.95258
▁بفضلك	-9.95267
▁2012	-9.95268
▁تستحي	-9.95269
▁تشعر	-9.95271
▁بالعربية	-9.95273
▁اخراج	-9.95295
ضخم	-9.95296
وثيق	-9.953
▁دينا	-9.95302
سومطر	-9.95335
▁للصلا	-9.95338
▁الاصلاح	-9.95342
دومينيك	-9.95351
ناقش	-9.95353
▁دوسو	-9.95354
طلاق	-9.95354
▁الفائق	-9.95361
▁تقدير	-9.95362
▁نافع	-9.95363
▁الوهابيين	-9.95367
▁تحصر	-9.95367
▁فريتش	-9.95386
▁بشرية	-9.95386
▁الخا	-9.95388
▁مطاطي	-9.95411
دافع	-9.95433
شين	-9.9544
▁ادعوا	-9.95447
▁بولس	-9.9545
▁المرحل	-9.95453
▁العصب	-9.95459
▁الفل	-9.95487
▁ساعات	-9.95493
▁حبيبنا	-9.955
▁مصط	-9.95512
▁معي	-9.95516
كاذب	-9.95532
▁البغ	-9.95532
▁الاوكتا	-9.9554
مدعوم	-9.95549
جوز	-9.95576
▁نصيب	-9.95593
▁عاص	-9.95606
▁العوام	-9.9561
▁يسم	-9.95633
▁الاجاص	-9.95645
▁الازرق	-9.95656
هافن	-9.95677
محكم	-9.95711
▁شركات	-9.95734
▁الرحمن	-9.95781
▁حيوية	-9.95816
▁يلعن	-9.95831
▁تكانت	-9.95842
▁جم	-9.95846
▁تتبع	-9.95852
▁الامامية	-9.95908
▁مرتب	-9.95941
▁المبلمرات	-9.95952
▁الديمقراطية	-9.9601
▁السيتان	-9.96016
▁وانت	-9.96036
▁الكينات	-9.96048
يدا	-9.96051
▁بالاردن	-9.96058
▁المنتخب	-9.96084
▁الاولفين	-9.96086
ستاهل	-9.96128
تعديل	-9.96138
▁انشئ	-9.96138
سيا	-9.96155
▁الاسبوع	-9.96161
▁بجن	-9.9617
▁مجلة	-9.96263
▁الكون	-9.96274
▁مبارك	-9.96289
▁الاعمال	-9.96305
قرنفل	-9.96322
▁النظيف	-9.96323
▁ادار	-9.96325
قب	-9.96343
▁المغترب	-9.96382
▁القيام	-9.96401
▁يقدم	-9.96404
خصوص	-9.96404
▁يعيد	-9.96415
صنف	-9.96444
▁سابق	-9.96445
▁مشتق	-9.96448
خطوط	-9.96456
▁نسيان	-9.96465
▁النفسيه	-9.96487
وتشي	-9.96493
▁المص	-9.96533
▁الحالية	-9.96545
▁الاض	-9.96546
▁لفت	-9.96548
▁علاه	-9.96567
شائع	-9.96575
▁ايون	-9.96578
▁واسع	-9.9658
▁الوسطي	-9.96582
▁موضع	-9.96591
فني	-9.96594
▁توصل	-9.96606
▁الوس	-9.9663
▁المثال	-9.96639
ائها	-9.96675
▁2,	-9.96713
▁ترفع	-9.9673
▁اقوي	-9.9674
▁المحلية	-9.96749
سلاف	-9.96762
▁الامبراطورية	-9.96774
▁اختيار	-9.96813
▁الشعوب	-9.96826
▁دايم	-9.96867
تخ	-9.96885
▁اعتماد	-9.96935
▁الافق	-9.96952
وسط	-9.96992
▁طالب	-9.97006
▁غنو	-9.97006
▁محتاج	-9.97051
▁الطيب	-9.97054
▁90	-9.97057
▁توكوشيما	-9.97068
▁الاخرين	-9.97112
▁بتخ	-9.97129
▁الشجر	-9.97132
▁هيغاشي	-9.97185
▁حفظ	-9.97191
▁هيروشيما	-9.97198
▁3,	-9.97204
ساس	-9.97207
عية	-9.97215
▁مستقبل	-9.97224
▁نييغاتا	-9.97275
▁طموح	-9.97323
ديوم	-9.97344
▁اتجاه	-9.97369
▁الحيوية	-9.97374
▁المالية	-9.97376
▁الرا	-9.97389
نحدر	-9.9742
▁تصدره	-9.97497
▁المتتا	-9.97499
▁العشر	-9.97511
زا	-9.97564
▁واذا	-9.97564
صغر	-9.9759
▁تحليل	-9.97645
▁جوف	-9.97653
▁اعمال	-9.9766
▁موقعه	-9.97683
▁محيط	-9.97684
▁اظن	-9.97692
▁القانونية	-9.97719
سول	-9.97803
▁صف	-9.97852
▁بالعل	-9.97899
▁ذري	-9.97956
ديرا	-9.9798
زانه	-9.98032
▁المعرف	-9.9807
▁زاد	-9.98116
تلقي	-9.98154
وفيتي	-9.98217
▁هاري	-9.98236
حجر	-9.98262
لنا	-9.98361
▁رشد	-9.98383
▁صالح	-9.98403
▁القمر	-9.98404
▁الشعبية	-9.98446
اسي	-9.98447
▁ايه	-9.98451
▁والام	-9.98501
▁بعيد	-9.98567
▁الفرق	-9.98589
▁تحرير	-9.98647
▁القوة	-9.98657
▁افت	-9.98715
▁التش	-9.98794
الرياضيات	-9.98814
▁ملابس	-9.98867
▁مياه	-9.98897
▁جمل	-9.9891
▁معادل	-9.9892
▁محد	-9.98931
▁الاخره	-9.98934
▁تاي	-9.98938
▁الايثين	-9.98968
▁الوحد	-9.98976
▁نجد	-9.98992
▁بدكو	-9.98995
▁يحفظك	-9.99015
▁ون	-9.99016
84	-9.99057
▁هدان	-9.9907
▁استعمل	-9.99091
▁للاو	-9.99097
▁غي	-9.99135
▁المشتركين	-9.99159
▁كازو	-9.99187
▁الاج	-9.99244
▁يظه	-9.99296
تغيير	-9.99302
نفسك	-9.99328
▁مقال	-9.99393
▁الفرا	-9.9941
▁واغن	-9.99467
▁الشمسية	-9.99467
اسف	-9.99472
▁يدل	-9.99473
▁تعرض	-9.9949
▁فنان	-9.99525
فوا	-9.99614
▁سمعت	-9.99654
حث	-9.99675
▁عيون	-9.99681
▁حبيب	-9.99782
كاغو	-9.99788
▁بتح	-9.99821
▁معه	-9.99831
قديمة	-9.99833
▁ذكور	-9.99837
▁بالاف	-9.99841
▁ياماغاتا	-9.99847
تفق	-9.99867
▁تست	-9.99885
يتبع	-9.99937
▁بروح	-9.99943
▁هول	-9.99943
▁للطاق	-9.99956
تحدث	-9.99986
▁معج	-10
لنساء	-10.0007
▁والف	-10.001
▁غربية	-10.0013
▁انفاس	-10.0016
▁الفرد	-10.002
غا	-10.0021
▁النهاية	-10.0022
▁مخرج	-10.0024
سيح	-10.0032
▁الجمع	-10.0032
▁قادر	-10.0039
▁الاكس	-10.0039
ونا	-10.0043
لس	-10.0048
▁ذر	-10.0048
▁مكيا	-10.0051
▁اطلق	-10.0053
ريتش	-10.0056
▁سوري	-10.0065
▁كبيرة	-10.0071
ينيدات	-10.0071
▁الموضوع	-10.0074
▁الالكتروني	-10.0079
▁وحق	-10.0092
لقي	-10.0095
▁وزن	-10.0099
▁الاسلامي	-10.0102
▁الصغير	-10.0105
منصب	-10.0109
25	-10.0111
▁وسوب	-10.0116
▁وض	-10.0121
▁هينو	-10.0131
▁الباء	-10.0131
مؤمن	-10.0135
ليوم	-10.0142
▁للجر	-10.0148
ابة	-10.0152
▁بشد	-10.0154
غفر	-10.0155
لولاي	-10.0156
▁الحم	-10.016
▁الروم	-10.0166
بلدية	-10.0167
▁اقرب	-10.0169
▁رياضيات	-10.017
▁ومع	-10.017
▁النظر	-10.0175
▁سين	-10.0195
▁ليه	-10.0197
▁العالمية	-10.0203
تغير	-10.0209
▁اريد	-10.0213
بع	-10.0219
▁يعين	-10.022
راضي	-10.0224
▁اسنان	-10.0226
▁للع	-10.023
يغابايت	-10.023
عثمانية	-10.0239
شادي	-10.024
كين	-10.0241
▁حقيقي	-10.0243
يح	-10.0244
لب	-10.0249
▁ذك	-10.0255
▁بقيت	-10.0256
▁عفي	-10.0261
اللاتينية	-10.0263
تخلف	-10.0274
قدم	-10.0278
▁فتن	-10.028
▁هاين	-10.0303
▁الذك	-10.0312
▁نظائر	-10.0313
يونيك	-10.0317
▁صحابي	-10.0323
▁فيك	-10.0323
▁طن	-10.0324
واتج	-10.0329
تجه	-10.0338
▁النه	-10.034
▁جيانغ	-10.035
▁الدا	-10.0352
▁وح	-10.0359
▁سرق	-10.0366
▁صيغة	-10.037
▁استقلاله	-10.0373
▁الاساسي	-10.0374
▁راضي	-10.0374
9,	-10.0378
ريه	-10.0383
▁مربع	-10.039
نيا	-10.0392
▁الاحد	-10.0397
لفان	-10.0398
قرط	-10.0403
▁النظرية	-10.0406
▁اسلام	-10.0406
لوطن	-10.0406
▁اف	-10.0411
نظم	-10.0412
رق	-10.0419
▁الابت	-10.042
▁معطر	-10.0436
▁يص	-10.044
▁عصر	-10.0446
▁تد	-10.046
خزي	-10.0461
▁خلال	-10.0466
ارية	-10.047
▁اسبا	-10.0476
▁مهن	-10.0479
اشتهر	-10.0483
بنات	-10.0491
لاول	-10.0492
▁برمج	-10.0495
▁كائن	-10.0495
اذا	-10.0504
يعرف	-10.0506
6,	-10.0514
▁للدع	-10.0517
▁يوكوي	-10.0518
▁جان	-10.0521
وائل	-10.0526
▁لغوي	-10.053
▁وفق	-10.0533
جات	-10.0538
▁شه	-10.0545
▁اختصار	-10.0558
دات	-10.0569
▁والاست	-10.057
▁اشجار	-10.057
▁ايتشي	-10.0579
▁الدار	-10.058
بيلة	-10.0584
غاز	-10.0595
▁ويا	-10.0601
▁البي	-10.0605
▁رايك	-10.0611
حكومة	-10.0614
▁طال	-10.0625
▁الاعلا	-10.0629
ناتج	-10.063
▁معرف	-10.063
▁وكم	-10.0636
يث	-10.0641
▁ميدان	-10.0645
▁دوراني	-10.0651
كوه	-10.0654
توس	-10.0654
▁والحاج	-10.0658
نباتات	-10.0664
▁الصور	-10.0667
شاف	-10.0674
▁الرق	-10.0681
ورو	-10.0691
امر	-10.0692
▁اغت	-10.07
امبراطورية	-10.0713
▁المدرس	-10.0714
▁هيرا	-10.0716
حاسب	-10.072
▁همي	-10.0722
استغل	-10.0732
▁الصغ	-10.0732
▁كول	-10.0739
▁للغ	-10.0739
▁محلول	-10.0744
▁كوج	-10.0758
▁الظف	-10.0759
جبر	-10.0761
يقات	-10.0792
كوا	-10.0798
4,	-10.0804
▁سائل	-10.0806
▁كسر	-10.081
وسا	-10.0811
▁هجومي	-10.0815
سكت	-10.0828
▁الايث	-10.0828
زار	-10.0831
استبشر	-10.0837
▁البريطان	-10.0839
▁الحاد	-10.0841
▁والصين	-10.0844
▁معين	-10.0847
▁اتف	-10.085
نشي	-10.0851
▁263	-10.0855
▁80	-10.0856
يتش	-10.0857
15	-10.0872
طرح	-10.0872
لقو	-10.0873
81	-10.0878
▁الامر	-10.0881
▁بدو	-10.0884
▁الرياضي	-10.0893
▁قس	-10.0913
▁القي	-10.0921
تسم	-10.0928
سلط	-10.0928
فلسطينية	-10.0936
▁احفظن	-10.0937
وما	-10.0941
طره	-10.0944
تمتع	-10.0966
▁بمث	-10.099
حات	-10.0991
تشي	-10.0999
▁اولاد	-10.1005
زال	-10.101
▁ساور	-10.101
▁واخر	-10.1011
▁الخلفي	-10.1011
▁التاريخي	-10.1016
▁وتنو	-10.1022
▁الاغريق	-10.1027
لعدد	-10.1038
زوج	-10.1046
▁الشكل	-10.1055
فنه	-10.1056
▁غون	-10.1056
خط	-10.1061
▁40	-10.1068
طية	-10.1073
▁خر	-10.1073
▁روز	-10.108
ارز	-10.1083
▁38	-10.1087
نوري	-10.1099
▁القنا	-10.1109
▁ذ	-10.1115
648	-10.1128
متقدم	-10.1145
▁استع	-10.1152
▁علام	-10.1162
▁اتح	-10.1166
▁البنا	-10.1178
ولا	-10.1184
▁وبلد	-10.1187
تهبل	-10.1189
خه	-10.1193
▁عقو	-10.1196
▁دوائ	-10.12
واجب	-10.1201
▁مط	-10.1207
▁وادي	-10.121
▁القرا	-10.1223
غرب	-10.1229
سيطر	-10.1242
▁للمست	-10.1247
محرم	-10.1256
▁بالف	-10.1261
حرف	-10.1263
بن	-10.1264
23	-10.1277
▁66	-10.1285
▁غلط	-10.1285
احصائية	-10.1295
تخاف	-10.1303
زين	-10.1306
▁اث	-10.1324
▁جنب	-10.1324
30	-10.1328
▁فض	-10.133
▁البير	-10.1331
▁الاخر	-10.1342
دعوات	-10.1358
▁قا	-10.1362
▁استخدم	-10.1365
امريكية	-10.1369
طيب	-10.1385
▁بقو	-10.1398
شفتاني	-10.14
قيق	-10.1408
▁كرم	-10.1413
▁ميت	-10.1422
اقه	-10.1424
▁التير	-10.1434
▁ابتدا	-10.147
▁اك	-10.1478
▁انتقالي	-10.148
▁بيك	-10.1483
▁بصيغ	-10.1486
▁196	-10.1497
▁رحم	-10.1499
نبيلة	-10.1517
واي	-10.152
▁اعلن	-10.1535
واح	-10.1541
عب	-10.1544
سمعنا	-10.1544
▁قلو	-10.1544
▁متع	-10.1561
تعود	-10.1561
الناصر	-10.1566
,000	-10.1567
▁فر	-10.1572
تاح	-10.1575
ئ	-10.1577
▁اثنا	-10.1581
لمجموعة	-10.1583
▁تامي	-10.1591
ذات	-10.1598
نجر	-10.1598
محدد	-10.1626
توا	-10.1631
▁ناديت	-10.1636
▁هير	-10.1639
▁غالي	-10.1642
▁القن	-10.1643
نحن	-10.1643
37	-10.1648
▁حك	-10.165
كة	-10.1653
▁حبك	-10.1666
صباح	-10.1672
لوا	-10.1675
توقف	-10.1678
بح	-10.1686
سنغال	-10.1689
هابي	-10.1695
▁دخول	-10.1699
▁ين	-10.1704
نشر	-10.1708
حوا	-10.1714
▁سيري	-10.1721
▁كيلو	-10.1722
الطبقية	-10.1725
نخ	-10.1729
▁سيار	-10.1735
منطقة	-10.1741
لفظ	-10.1744
ارك	-10.1744
▁ومنه	-10.1753
جسيمات	-10.1761
امي	-10.1761
يف	-10.1762
فبراير	-10.177
▁حر	-10.1774
▁مصلح	-10.1775
لها	-10.1783
▁سعود	-10.1787
▁صوتي	-10.179
▁عراقي	-10.1792
كيد	-10.1793
براهي	-10.1794
▁تشار	-10.1794
▁تقارن	-10.1795
تحديد	-10.1797
رنا	-10.1807
▁سكا	-10.1812
▁والمق	-10.1812
حوسبة	-10.1816
ينة	-10.1816
▁تواجد	-10.1818
تداد	-10.1823
المظ	-10.1826
▁بالل	-10.1838
حده	-10.1844
▁تاني	-10.1846
▁عا	-10.1846
▁مغ	-10.185
▁العر	-10.1853
،...	-10.1853
▁مشكل	-10.1855
جيانغ	-10.1856
▁سمي	-10.1868
▁صنع	-10.1869
▁الماء	-10.1871
▁الكين	-10.1892
▁فينا	-10.1897
▁النا	-10.1899
ماتسو	-10.1903
نظائر	-10.1905
▁كلو	-10.1915
وانغش	-10.1918
تحق	-10.1919
▁اربع	-10.1921
عالم	-10.1924
تعالي	-10.1936
فيتش	-10.1939
سب	-10.194
يلند	-10.1944
سمح	-10.1955
▁المست	-10.1955
▁ضحا	-10.1959
دد	-10.1961
ارض	-10.1973
نيل	-10.1996
سنة	-10.2021
▁زم	-10.2022
اثنين	-10.2025
تزا	-10.2026
▁امبراطور	-10.2028
نزع	-10.2029
▁يدر	-10.2034
ئه	-10.2034
▁شان	-10.2042
▁عضو	-10.2066
دراس	-10.2069
الاغاني	-10.2072
▁23	-10.2078
نث	-10.2081
ريف	-10.2082
اسلام	-10.2086
▁ترج	-10.209
▁مي	-10.2091
حشر	-10.2095
ومي	-10.21
▁تح	-10.2127
ذيب	-10.2128
عشر	-10.213
▁واخ	-10.213
▁بالت	-10.2132
اص	-10.2133
فية	-10.215
وحد	-10.2154
وديو	-10.2163
زه	-10.2174
▁تحوي	-10.2179
غسان	-10.218
كانت	-10.2183
▁رام	-10.2188
▁عاد	-10.2194
وفي	-10.2199
اتي	-10.2206
▁الكي	-10.2206
▁ايف	-10.2209
▁دار	-10.2219
▁وص	-10.2224
▁حص	-10.2225
بان	-10.2225
شبكة	-10.2237
▁خا	-10.2241
يتو	-10.2248
ربنا	-10.2253
الفيديو	-10.2283
نص	-10.2283
▁المح	-10.2296
قطاع	-10.2304
▁الزب	-10.231
▁ثو	-10.2329
وزير	-10.233
ريق	-10.2347
▁سير	-10.235
وله	-10.2369
▁البروم	-10.2379
كيف	-10.238
ورين	-10.2385
صد	-10.2401
عتقد	-10.2403
▁201	-10.2407
▁دوار	-10.2416
فينيقي	-10.2417
الانجليزية	-10.2426
▁امير	-10.2444
استاذ	-10.2447
▁اخوك	-10.2457
▁اعط	-10.2465
وحيد	-10.2465
▁لهذ	-10.2478
افراد	-10.2484
▁قوا	-10.2501
طبيعية	-10.2512
لتغيير	-10.2514
غون	-10.2517
▁يقر	-10.2518
▁لغا	-10.2526
قت	-10.2538
▁القري	-10.254
وليس	-10.254
▁تقا	-10.2545
▁تسي	-10.255
▁خون	-10.256
▁يخاف	-10.2565
خبي	-10.2568
▁محصو	-10.2569
يزم	-10.257
حرة	-10.2573
▁حيو	-10.2581
▁قي	-10.2592
مسافة	-10.2593
▁منه	-10.2598
▁الشهي	-10.2612
شهد	-10.2626
بيا	-10.2627
▁ضع	-10.2628
▁مرضي	-10.2629
راض	-10.2632
▁طائ	-10.2633
انات	-10.2633
▁توب	-10.2635
ضر	-10.2637
▁النظي	-10.265
▁المعم	-10.2662
▁المستق	-10.2666
▁وسا	-10.2678
اضي	-10.2679
خير	-10.2681
اغاوا	-10.2684
▁فران	-10.2687
▁المفرو	-10.2706
رسك	-10.2711
مغترب	-10.272
صيد	-10.2721
عات	-10.2722
▁الحسابي	-10.2728
▁جيجا	-10.274
▁احي	-10.2741
▁سبع	-10.2742
مشاهد	-10.2743
تراي	-10.2747
▁المبلمر	-10.2748
▁الرابط	-10.2752
▁ياباني	-10.2764
93	-10.2765
بون	-10.2772
▁الولاية	-10.279
▁حرك	-10.279
يتنا	-10.2791
▁الحالي	-10.2792
الاضرا	-10.2801
مثلا	-10.2805
▁50	-10.2808
دفن	-10.2809
علا	-10.2818
▁اسباني	-10.2818
▁وتع	-10.282
▁كاتي	-10.2827
طه	-10.2831
عمود	-10.2834
يلة	-10.2836
تجاور	-10.2838
▁رسمي	-10.2847
فان	-10.2852
متنفذين	-10.2852
▁ابخازيا	-10.2852
▁الاصطناعي	-10.2852
▁التطوعي	-10.2852
▁الكمبيوتر	-10.2852
▁نيكاراغوا	-10.2852
▁غواياكي	-10.2852
▁نيوزيلند	-10.2852
▁الرافدين	-10.2852
▁ماركونيكوف	-10.2852
▁اثيوبيا	-10.2852
▁ليغوريا	-10.2852
▁الانتقالي	-10.2852
▁مبلمرات	-10.2852
▁انحراف	-10.2852
▁اللبناني	-10.2852
▁المسيحية	-10.2852
▁رومانسية	-10.2852
▁هيدروجين	-10.2852
▁غامبيا	-10.2852
▁العباسي	-10.2852
▁مخصص	-10.2852
▁كوركول	-10.2852
▁الهجائي	-10.2852
▁عاهرات	-10.2852
▁مشبوه	-10.2853
متجدده	-10.2853
▁الخاتمه	-10.2853
داياريل	-10.2853
▁اكتشاف	-10.2853
لدرجه	-10.2853
1207	-10.2853
▁الاثنولوجي	-10.2853
▁البحيرات	-10.2853
▁1494	-10.2853
▁الصديق	-10.2853
سقوط	-10.2853
▁استجب	-10.2853
▁طفيلي	-10.2853
▁بالهجر	-10.2854
▁تبرير	-10.2854
▁1871	-10.2854
▁العصبونية	-10.2854
▁كرامته	-10.2854
▁القتال	-10.2854
▁1659	-10.2854
▁المتعدد	-10.2854
▁ايبيريا	-10.2854
▁اتباع	-10.2854
▁المكعب	-10.2855
تؤثر	-10.2855
▁اصدقائ	-10.2855
▁الامراض	-10.2855
▁2005	-10.2855
▁جيمس	-10.2855
▁اسيوية	-10.2855
▁روائي	-10.2855
معطاة	-10.2855
▁مؤخر	-10.2855
▁السريره	-10.2856
▁ثلج	-10.2856
▁1897	-10.2856
ديسيمتر	-10.2856
▁جناته	-10.2856
▁فاصبح	-10.2857
▁العطور	-10.2857
▁الشريف	-10.2857
▁مسيحي	-10.2857
▁الاستواء	-10.2858
▁يوفقكم	-10.2858
مفتوح	-10.2858
▁1998	-10.2858
▁متجاورتين	-10.2859
▁يقارب	-10.2859
1801	-10.2859
626	-10.2859
لعنصر	-10.2859
▁والمسلم	-10.286
جان	-10.286
▁كريستوف	-10.286
1385	-10.286
▁لندن	-10.286
▁يستعيد	-10.2861
▁ضعيف	-10.2861
▁1991	-10.2861
لز	-10.2862
▁المعترف	-10.2862
▁الحبوب	-10.2863
▁باريس	-10.2863
▁للمستخدم	-10.2864
فاوض	-10.2864
▁بتفهم	-10.2864
▁وتتبع	-10.2864
▁الصليب	-10.2864
▁تايوان	-10.2865
1918	-10.2865
▁افعال	-10.2865
▁ميجا	-10.2867
▁استحدث	-10.2868
▁امثالك	-10.2868
▁الطاول	-10.2868
حتونا	-10.2869
▁كمذيب	-10.287
▁اسرار	-10.287
▁وتحول	-10.287
▁شيراكا	-10.287
حواسيب	-10.287
▁وخصائصه	-10.2871
▁يغنون	-10.2871
▁القذا	-10.2872
▁خمس	-10.2872
شيوعي	-10.2873
▁بتاريخ	-10.2874
▁يسجل	-10.2875
▁المانجو	-10.2875
▁وبصر	-10.2875
▁للعراق	-10.2876
▁شن	-10.2878
عش	-10.2878
تيتراكوسان	-10.2878
▁الاخو	-10.2878
▁يحضر	-10.2879
راشد	-10.2879
▁احتاجه	-10.2879
▁ديفا	-10.2879
▁المبني	-10.288
▁عهدها	-10.2882
▁نطقها	-10.2884
▁كيتون	-10.2884
▁واحساس	-10.2885
▁الرمال	-10.2888
▁للمادة	-10.2889
▁جزئي	-10.2889
حذاء	-10.289
▁منتجع	-10.2892
▁والوسط	-10.2892
▁الصغري	-10.2892
▁المرج	-10.2893
▁باخلاق	-10.2894
▁اعمالنا	-10.2895
تعلق	-10.2895
لاستك	-10.2897
▁القطر	-10.2897
▁معروف	-10.2897
▁الخوارج	-10.2899
▁السرياني	-10.29
▁فرنسي	-10.29
▁البيضاء	-10.29
▁واحسن	-10.29
▁المعامل	-10.2901
▁وفلسطين	-10.2902
▁عسل	-10.2903
▁الزئبق	-10.2905
دلال	-10.2905
نسيج	-10.2905
▁وريح	-10.2906
يع	-10.2906
▁يعطون	-10.2906
▁غدا	-10.2909
▁ضيق	-10.2909
▁الصحراء	-10.2909
ؤرق	-10.291
تاكسد	-10.291
▁اقتراب	-10.2911
▁لشباب	-10.2912
▁فالح	-10.2912
▁فائق	-10.2913
▁يموت	-10.2913
▁الراين	-10.2915
رحمتك	-10.2915
▁الفلوس	-10.2918
▁لتغير	-10.2919
1947	-10.2919
▁يجمع	-10.2919
ناف	-10.2924
▁ووصل	-10.2924
▁ميتشي	-10.2924
▁وسوف	-10.2925
▁يسعد	-10.2927
▁فراغية	-10.2927
تفكير	-10.2928
▁حراميه	-10.2929
لامس	-10.293
▁الفعالة	-10.2932
▁يتحدث	-10.2935
▁الارجنتين	-10.2935
▁كوشي	-10.2936
▁الشيعة	-10.2937
▁دمج	-10.2938
▁ذنب	-10.2938
▁معتقد	-10.2938
▁سجون	-10.2938
▁بطني	-10.294
▁اشتق	-10.2941
▁ساعة	-10.2943
ئيل	-10.2943
▁استمر	-10.2944
اثر	-10.2944
▁الصخر	-10.2946
كاناغاوا	-10.2948
▁اجتهد	-10.2953
قا	-10.2953
▁امرك	-10.2954
ضاف	-10.2954
▁دعائ	-10.2955
▁حامي	-10.2956
▁الحسنه	-10.2958
▁تهز	-10.2959
▁وسعاده	-10.2959
رتي	-10.296
▁يمت	-10.296
قص	-10.2961
▁والتكنولوجيا	-10.2963
▁الريا	-10.2963
ثديي	-10.2965
▁البلق	-10.2968
▁المشا	-10.2969
▁تصنيف	-10.2969
46	-10.2972
▁وبايت	-10.2973
▁الجاهلية	-10.2973
دمن	-10.2976
▁متابع	-10.2978
▁0	-10.2979
▁بيرك	-10.2982
▁وجاي	-10.2984
▁المدير	-10.2986
قوم	-10.2988
▁واغفر	-10.2991
كوميدي	-10.2991
▁المشع	-10.2996
▁مشتركة	-10.2996
▁189	-10.2998
▁سنو	-10.2999
▁بهيك	-10.3003
▁غسال	-10.3004
▁غاليه	-10.3005
▁اصيل	-10.3005
احباب	-10.3007
▁غاما	-10.3007
▁الحج	-10.3007
صلاح	-10.3008
▁الاتصالات	-10.3008
▁اصلاح	-10.301
▁جابر	-10.3012
▁وجميع	-10.3012
▁الطور	-10.3012
▁ماسات	-10.3013
▁وعد	-10.3014
▁امنيا	-10.3014
▁عوف	-10.3015
▁للر	-10.3016
لمملك	-10.3017
▁سينغ	-10.3019
تاكد	-10.302
حرق	-10.3021
▁الثنائي	-10.3021
▁فيليب	-10.3023
طرق	-10.3027
▁السؤال	-10.3029
▁تملك	-10.3031
▁راسك	-10.3032
▁حقيقيه	-10.3036
▁الثقاف	-10.3036
▁ازمه	-10.3042
يمها	-10.3042
▁منطق	-10.305
اضلاع	-10.305
مقدس	-10.305
▁بذكره	-10.305
▁راحت	-10.305
▁العاص	-10.3051
▁اوكاياما	-10.3056
▁يسامح	-10.3057
لل	-10.3058
▁ناميبي	-10.3058
▁الصوتية	-10.3059
▁بلدنا	-10.3061
▁صدوره	-10.3062
▁ريو	-10.3064
يشي	-10.3064
▁كبريت	-10.3064
▁احتس	-10.3067
▁طلابه	-10.3068
▁خلف	-10.3069
▁تاك	-10.3073
▁يقا	-10.3075
▁بالفن	-10.3078
▁مخلص	-10.3079
▁غاليلي	-10.3081
▁اخلاقيا	-10.3083
▁الحسابية	-10.3085
▁اجمع	-10.3085
▁متزامر	-10.3092
▁كلا	-10.3092
عاصمتها	-10.3093
▁واهد	-10.3097
لذرات	-10.3098
▁الوحيد	-10.3101
ابعاد	-10.3107
▁للطي	-10.3108
▁جبلية	-10.3109
▁الفلسطينية	-10.3109
▁بضم	-10.3113
▁تعريف	-10.3115
▁السماو	-10.3117
▁انح	-10.3119
▁تحمل	-10.3122
▁اندونيسيا	-10.3125
▁العالي	-10.3126
▁الهاشمية	-10.3128
▁تجس	-10.3129
▁الحث	-10.3129
▁تهدي	-10.3132
▁سالبة	-10.3134
▁الخر	-10.3138
▁والح	-10.314
▁لاوس	-10.314
▁تيلابيري	-10.314
▁النقط	-10.3141
▁الحلف	-10.3141
▁ستبد	-10.3141
بنزين	-10.3145
▁احص	-10.3147
▁الصحه	-10.315
▁بديل	-10.3153
▁الصالحه	-10.3154
توزع	-10.3155
▁الاستعما	-10.3156
▁مرتك	-10.3156
▁الحجري	-10.3157
مرت	-10.3158
▁فجوة	-10.3161
▁بذكر	-10.3161
ائع	-10.3164
نهايه	-10.3165
لتفاعل	-10.3165
▁45	-10.3172
عجوز	-10.3174
الختام	-10.3176
▁نا	-10.3177
سيجي	-10.3177
▁تسو	-10.3178
اخوان	-10.318
▁الاع	-10.3182
▁النب	-10.3184
نوع	-10.3184
▁مباشرة	-10.3185
▁وعدد	-10.3185
▁1990	-10.3186
▁مدخل	-10.3187
يقابله	-10.3193
▁الز	-10.3194
▁المنتظ	-10.3195
▁وظيفية	-10.3195
▁تيرا	-10.3195
▁تشاد	-10.3195
افكار	-10.3195
المحيط	-10.3195
▁المغربية	-10.3197
▁لسا	-10.3201
▁سعي	-10.3202
▁التسل	-10.3203
▁هيدروكربونية	-10.3206
حيط	-10.3208
سعاده	-10.321
▁عملاق	-10.3212
▁الويب	-10.3213
▁سبعة	-10.3215
انقل	-10.3218
عطيك	-10.3219
▁مساعد	-10.3219
▁معامل	-10.3221
▁المرك	-10.3223
▁عبادته	-10.3228
▁نطق	-10.323
▁خلفت	-10.323
▁اندري	-10.3231
▁الحد	-10.3232
▁يبعد	-10.3233
▁الحلوي	-10.3234
▁ارحمو	-10.3235
▁المشكله	-10.3239
اوغاريت	-10.3243
تيك	-10.3244
▁وتب	-10.3245
▁زا	-10.3246
▁يقرب	-10.3249
▁الال	-10.325
مشاكل	-10.3254
▁الاسعار	-10.3256
▁الرماد	-10.326
▁الميت	-10.3263
▁لسان	-10.3267
حرجه	-10.3276
حين	-10.3278
▁المصاب	-10.328
▁قدام	-10.3285
▁تروح	-10.3286
▁تترك	-10.3286
استمرار	-10.3289
▁استعمال	-10.3292
اصدار	-10.3294
زز	-10.3295
اسبوع	-10.3297
شو	-10.3299
لجن	-10.33
▁مسلمين	-10.3301
فرس	-10.3303
▁تفض	-10.3307
▁طبية	-10.3324
عقوب	-10.3329
محلية	-10.3331
▁فوغ	-10.3335
▁الجديدة	-10.3341
لجدول	-10.3342
▁المخت	-10.3345
▁الات	-10.3351
▁مرحل	-10.3352
يديو	-10.3354
▁هيروك	-10.3355
▁اشوفه	-10.3356
▁يضم	-10.3359
▁زوجات	-10.336
▁علويو	-10.3362
▁77	-10.3365
▁وعن	-10.3367
▁عاز	-10.3367
▁خذه	-10.3377
▁العواصف	-10.3377
96	-10.3378
▁تسلم	-10.3382
▁سمك	-10.3382
▁العدد	-10.3384
▁هجر	-10.3384
▁ترا	-10.3385
▁الخلق	-10.3386
انفصا	-10.339
▁المد	-10.3391
▁للا	-10.3392
مح	-10.3395
▁احادي	-10.3395
▁العربيه	-10.3396
مجانين	-10.3401
▁فرد	-10.3406
العكس	-10.3408
▁بتمن	-10.3412
▁تكن	-10.3415
رتب	-10.3419
▁يار	-10.3419
مثلث	-10.3422
سعادت	-10.3423
▁التركية	-10.3425
▁للاش	-10.3431
▁النقي	-10.3433
▁سيا	-10.3436
▁مز	-10.3438
خشب	-10.3438
▁جعل	-10.3441
▁ذا	-10.3442
▁التراي	-10.3442
جين	-10.3443
▁الخي	-10.3447
▁والحن	-10.3449
ائل	-10.3452
يضه	-10.3454
ملك	-10.3458
▁توقع	-10.3459
▁خفي	-10.3462
نواحي	-10.3484
ياض	-10.349
ياما	-10.3492
▁كوتشي	-10.3494
هيكس	-10.3501
تصور	-10.3506
▁الطير	-10.3506
▁يعيش	-10.3508
▁سلطانا	-10.3509
شه	-10.3509
معترض	-10.3512
▁الرئ	-10.3523
▁والعل	-10.3531
▁باربع	-10.3541
▁الفتن	-10.3546
▁توشي	-10.3546
▁مسمي	-10.3549
▁موسي	-10.3552
07	-10.3552
▁المرتب	-10.3555
افريقية	-10.3555
▁الخار	-10.3557
عقيد	-10.356
حولهم	-10.3566
ضاع	-10.3568
يمور	-10.3581
باخ	-10.3581
▁موس	-10.3582
خاف	-10.3584
▁كوماموتو	-10.3588
▁ظهر	-10.3593
لشكل	-10.3595
بحر	-10.3596
▁المحيط	-10.3603
▁المساحة	-10.3603
▁المل	-10.3606
لبرت	-10.3608
▁بارد	-10.3611
▁وعرض	-10.3612
▁نعمل	-10.3613
لبل	-10.3613
▁وفه	-10.3613
عجز	-10.3618
178	-10.3618
▁جات	-10.3619
▁لوين	-10.3624
▁قرر	-10.3626
شيفر	-10.3628
لجان	-10.3629
▁خي	-10.3634
الحسد	-10.3637
بانيا	-10.364
عزف	-10.3643
▁يدرس	-10.3644
▁الشي	-10.3646
▁مروح	-10.3646
تنزل	-10.3659
▁سبي	-10.3667
▁الخاصة	-10.3675
التشاؤم	-10.3678
▁طائر	-10.3681
▁الغز	-10.3682
رز	-10.3684
▁2008	-10.3685
▁الكتب	-10.3686
تصام	-10.3689
▁النف	-10.3692
▁بعضها	-10.3694
واسي	-10.3696
كمان	-10.3696
▁بنظر	-10.3701
مام	-10.3717
فنلند	-10.3721
168	-10.3726
مكان	-10.3726
▁الصحيح	-10.3728
فار	-10.3736
واتي	-10.3739
يلين	-10.3742
▁والس	-10.3759
▁الفراغ	-10.3762
▁42	-10.3762
▁الكتل	-10.3764
▁اقل	-10.3767
اشرف	-10.3768
▁مؤسسات	-10.3768
▁عاصم	-10.3773
▁رم	-10.3781
▁فلكي	-10.3783
▁بعده	-10.3785
▁يظن	-10.3787
▁لهج	-10.3788
الق	-10.3791
▁الوهابي	-10.3801
▁الحسن	-10.3803
▁كات	-10.3803
حف	-10.3806
▁كرت	-10.381
يناي	-10.3816
طب	-10.3818
سيل	-10.3819
جمع	-10.3829
ونه	-10.3835
▁كيميائيا	-10.3838
▁السع	-10.3841
▁قوت	-10.3842
روث	-10.3843
▁سري	-10.3846
تسو	-10.385
ولونيا	-10.385
يزن	-10.3853
الجزائر	-10.3854
عراق	-10.3855
امهات	-10.3861
تمام	-10.3863
واعد	-10.3868
▁البروتو	-10.3871
توفي	-10.3878
تعلم	-10.3888
▁بالح	-10.389
▁اللث	-10.389
▁الاعتدا	-10.3891
▁قطاع	-10.3899
▁اغ	-10.3905
وغو	-10.3919
▁وبلا	-10.3924
▁المعا	-10.3925
مذيب	-10.3927
▁العملية	-10.393
سلم	-10.3937
سيب	-10.395
ارث	-10.3951
افق	-10.3952
▁بوكي	-10.3953
▁نسبية	-10.3956
سنين	-10.396
▁الوز	-10.3964
لبلاد	-10.3966
▁خدم	-10.3969
▁وسطح	-10.398
▁الخارجي	-10.398
لبراكنة	-10.3981
▁وانتو	-10.3984
▁القرية	-10.3986
01	-10.3989
▁فاعل	-10.3997
▁غين	-10.3999
▁لبراكنة	-10.4015
دن	-10.4018
▁حز	-10.4018
▁سام	-10.402
▁لادن	-10.4021
جب	-10.4021
استوني	-10.4024
▁موتو	-10.4033
▁ادوا	-10.4035
يست	-10.4035
▁بدرا	-10.4043
▁اياه	-10.4045
▁المواق	-10.4048
الا	-10.4048
مومية	-10.4057
صحابي	-10.4066
▁لفظ	-10.4067
▁الشغل	-10.4068
يدرس	-10.4069
▁بده	-10.4086
تقارنو	-10.409
مضاد	-10.4091
▁34.	-10.4091
نجا	-10.4099
▁بكث	-10.4101
▁بجو	-10.4104
تب	-10.4111
▁المقر	-10.4111
▁شفا	-10.4114
اكتيني	-10.4122
▁الربا	-10.4126
المنص	-10.4129
▁هانو	-10.4144
تاثر	-10.4145
74	-10.4146
فجور	-10.4148
▁الاصل	-10.415
شيه	-10.4153
▁ادب	-10.4154
▁7	-10.4162
سك	-10.4167
▁طور	-10.4168
ذكره	-10.4171
صه	-10.4172
المناسب	-10.4173
▁باطن	-10.4175
اسه	-10.4179
شحن	-10.4179
▁يقف	-10.4182
▁يخز	-10.4186
▁....	-10.4188
سكان	-10.4202
كونغ	-10.4207
▁محرم	-10.4211
سق	-10.4212
▁الاطل	-10.422
حاول	-10.4223
▁تصور	-10.4224
▁سفر	-10.4227
باني	-10.4228
▁نادر	-10.424
▁الثماني	-10.4247
▁للن	-10.425
▁البوس	-10.4251
▁القد	-10.4253
متد	-10.4253
▁للت	-10.4256
خالص	-10.426
باروف	-10.4262
▁از	-10.4263
▁شك	-10.4267
▁فل	-10.4269
▁شوف	-10.427
احترامك	-10.4271
▁الاغ	-10.4271
هور	-10.4274
اغان	-10.4279
▁سب	-10.4287
▁لدين	-10.429
▁النوا	-10.4292
ابط	-10.4292
الشكر	-10.4293
وزون	-10.4294
▁نفخ	-10.4296
تطور	-10.4299
▁بنسم	-10.43
▁ثق	-10.4301
نساء	-10.4305
يئا	-10.4314
▁وقل	-10.4321
الشوز	-10.4324
10	-10.4328
هكسين	-10.4332
▁لتد	-10.4338
▁الظ	-10.4348
مركب	-10.4357
▁الباني	-10.4357
وارا	-10.4358
▁الملح	-10.4364
▁بقوت	-10.4364
▁مغني	-10.4391
▁ثابت	-10.4391
▁تدري	-10.4395
▁وجلا	-10.4396
▁السياس	-10.4398
▁الاهم	-10.4398
يلية	-10.4402
▁تسع	-10.4402
فيها	-10.4406
▁تزو	-10.4411
▁تريد	-10.4428
ثيو	-10.443
▁والن	-10.4432
▁الميلاد	-10.4432
▁نبي	-10.4438
▁اكس	-10.4441
ركات	-10.4445
يض	-10.4446
يرو	-10.4448
0,000	-10.445
▁خشب	-10.4452
كيت	-10.4461
▁باغل	-10.4465
اش	-10.4473
شيغا	-10.4478
جبل	-10.4481
تناول	-10.4484
قطبية	-10.4489
▁نقا	-10.4495
▁كيلوبايت	-10.4496
يدي	-10.4503
▁دخوله	-10.4508
نمو	-10.4513
▁التحك	-10.4518
حرج	-10.4524
▁الفاصل	-10.4524
سعد	-10.4532
بروميد	-10.4542
ستمر	-10.4547
▁العمي	-10.4549
▁واح	-10.4551
▁للغاي	-10.4553
▁العين	-10.4554
▁وعشر	-10.4563
ترك	-10.4564
▁معال	-10.4572
▁الانب	-10.4572
مستعمر	-10.4581
▁المولي	-10.459
▁المحر	-10.4597
▁موري	-10.4598
▁الاعت	-10.4602
خيط	-10.4602
حمين	-10.4604
فيد	-10.4609
78	-10.4613
مض	-10.4618
اكثر	-10.463
وريس	-10.4633
والله	-10.464
سوائل	-10.4653
سبين	-10.4659
▁ساتو	-10.4673
نصر	-10.4685
64	-10.4686
لمعلومات	-10.4688
▁صغيره	-10.47
▁نيك	-10.4707
▁قطبي	-10.4708
▁159	-10.4709
بتي	-10.4719
▁ايكي	-10.4724
88	-10.4725
▁والمت	-10.4735
بنا	-10.4736
▁بغ	-10.4765
▁المقا	-10.4773
▁الباقي	-10.4777
▁تتوق	-10.4779
فضة	-10.4789
▁عهد	-10.4792
جوروم	-10.4798
انو	-10.48
▁التج	-10.4801
فف	-10.4804
لهي	-10.4804
شنغ	-10.4806
ديان	-10.4806
وبر	-10.4806
▁الارغ	-10.4807
▁الاستخدام	-10.481
▁خليه	-10.4811
▁عب	-10.4812
سيت	-10.4814
حالك	-10.4815
▁طبيع	-10.4816
▁الاند	-10.4821
امه	-10.4826
هندس	-10.4831
براكنة	-10.4835
نهم	-10.4836
▁باغ	-10.4842
▁اكل	-10.4855
▁الترتيب	-10.4866
▁الناصر	-10.4871
الوقت	-10.4872
▁العش	-10.4873
اشي	-10.4873
لن	-10.4881
▁متنا	-10.4884
▁بنفس	-10.4887
اكو	-10.4892
100	-10.4892
▁بالدول	-10.4899
تاج	-10.4905
مسؤوليه	-10.4909
▁ويخل	-10.4937
نزل	-10.4945
▁برض	-10.4947
▁طاب	-10.4948
ادل	-10.4948
▁الجز	-10.4959
يوس	-10.4962
برين	-10.4966
▁يحر	-10.4981
▁لمد	-10.4984
حفظ	-10.4985
▁كود	-10.4992
غتي	-10.4994
نشو	-10.4994
حرار	-10.4996
ساب	-10.5
▁لتص	-10.5
▁مثلك	-10.5004
▁قب	-10.5006
انيون	-10.5016
▁الرقي	-10.5023
ندم	-10.5039
▁اصلي	-10.504
▁كار	-10.5046
▁75	-10.5048
▁رياض	-10.5054
▁دايت	-10.5056
اركون	-10.5067
▁الدع	-10.5081
حطه	-10.5094
75	-10.5102
تصف	-10.5116
▁السن	-10.5122
▁النفسي	-10.5123
▁اقص	-10.5124
▁والجب	-10.5133
صي	-10.5139
منطلق	-10.5145
▁ستا	-10.5171
▁ساكا	-10.5181
▁هيمن	-10.5184
▁الصيني	-10.5189
▁ريكا	-10.5207
▁وكلو	-10.5209
يله	-10.5209
80	-10.5211
▁اساسي	-10.5223
▁صالحا	-10.5228
▁ولكنه	-10.5233
▁الدوله	-10.5236
زق	-10.5242
▁شيما	-10.5243
ستخدام	-10.5256
▁ملح	-10.5267
▁استعن	-10.5269
▁وجع	-10.5269
وط	-10.528
▁الاحبا	-10.5287
▁يصي	-10.5287
سيتان	-10.5288
▁نظر	-10.5289
متلك	-10.529
▁حرة	-10.5301
52	-10.5317
▁وغيره	-10.5318
▁الناع	-10.532
89	-10.5335
▁الايوب	-10.5344
هد	-10.535
▁شق	-10.5353
الجامعه	-10.536
▁وينت	-10.536
▁الكربوني	-10.5363
مطار	-10.5367
ورية	-10.5369
عمله	-10.5372
غرا	-10.5377
جئ	-10.5379
▁وتح	-10.5381
▁احفظ	-10.5384
▁كوري	-10.5388
▁للس	-10.5388
▁وخ	-10.5392
▁عف	-10.5395
▁بحج	-10.5406
رائحة	-10.5429
تولي	-10.5437
▁فلك	-10.5439
▁المكسيك	-10.5439
▁التح	-10.5459
▁ومث	-10.5466
▁زيو	-10.5466
ناحيتي	-10.547
جنوب	-10.5478
قوا	-10.5479
يدو	-10.548
زلات	-10.5483
الفيتنام	-10.5503
ليا	-10.5508
تحري	-10.5522
▁انش	-10.5526
▁خرج	-10.5527
بوليمر	-10.553
▁حبو	-10.5534
▁العلويي	-10.5539
شير	-10.554
حدا	-10.5544
اناك	-10.5577
▁الخلف	-10.5586
▁بهال	-10.5597
اترو	-10.5598
▁فك	-10.5613
يتون	-10.5616
فاق	-10.5618
قسمت	-10.5619
مجاور	-10.5628
الوا	-10.5636
▁امتد	-10.5647
▁تاكو	-10.5648
▁تغ	-10.5648
كيميائية	-10.5649
▁واط	-10.5659
حقيقي	-10.566
▁السويد	-10.5668
شجع	-10.5673
▁بيتي	-10.5683
صا	-10.5685
▁تكف	-10.572
هاب	-10.5725
وكا	-10.5737
▁نقل	-10.5739
اكسجين	-10.574
رائح	-10.5754
نغو	-10.5755
مصاري	-10.5757
▁مدينتا	-10.5766
▁المقدس	-10.5774
لتي	-10.5781
ثمانية	-10.5782
▁المسك	-10.5787
صفح	-10.579
حضر	-10.5799
▁الاص	-10.5803
▁انحل	-10.5814
▁امري	-10.5815
▁كوني	-10.582
وتسو	-10.5839
▁194	-10.5861
رئيس	-10.5862
ئات	-10.5872
▁انعم	-10.5875
ابق	-10.5889
يستحي	-10.59
لاقيه	-10.5902
▁المه	-10.5905
▁وبعد	-10.5912
انت	-10.592
▁مار	-10.593
اخ	-10.5931
▁الدعو	-10.5933
▁داب	-10.5938
نبيك	-10.5942
▁بطال	-10.5948
مار	-10.5961
▁المراق	-10.5968
▁تنف	-10.5988
▁امور	-10.5993
منحط	-10.5998
كانا	-10.6
▁العبر	-10.6
دامت	-10.6007
اكا	-10.6007
▁سيك	-10.6007
▁اصو	-10.6009
▁نسم	-10.6017
▁ثور	-10.6019
▁بق	-10.6029
رتفع	-10.603
افه	-10.6031
▁الفم	-10.6032
طاقة	-10.6033
رحمن	-10.6039
سان	-10.6045
هندي	-10.605
ثلاثي	-10.6052
باب	-10.6054
توضيح	-10.6056
▁اغلبه	-10.6057
▁سلال	-10.6064
خصوصي	-10.6065
الزم	-10.6075
▁تدف	-10.6078
▁اص	-10.6082
▁يشب	-10.6084
▁دز	-10.6093
لمشتركين	-10.6104
▁يكونو	-10.611
▁المخ	-10.611
▁ريت	-10.6118
مقاوم	-10.6124
سيس	-10.6126
واكب	-10.6128
▁نص	-10.6134
▁المما	-10.6137
شباب	-10.6139
▁200	-10.614
▁بالك	-10.6148
سفل	-10.6148
▁وصف	-10.6155
69	-10.6156
بوليمير	-10.6167
▁هند	-10.6184
قصي	-10.6198
▁الكان	-10.6206
▁مشع	-10.6207
شا	-10.6216
فضائ	-10.622
دب	-10.6224
ولها	-10.6229
تدي	-10.624
▁ومتج	-10.6254
▁البسيط	-10.6266
تفائل	-10.6271
دار	-10.6272
جول	-10.6275
وده	-10.6278
▁قدو	-10.628
▁نظ	-10.6285
سر	-10.6288
▁بتق	-10.6297
▁اولا	-10.6298
هل	-10.6302
وث	-10.631
▁137	-10.631
▁كور	-10.6312
▁مشح	-10.6318
تيكي	-10.6328
ثه	-10.6329
ودي	-10.6337
▁بف	-10.6347
▁فعال	-10.6347
▁مغن	-10.637
ينشا	-10.6372
فع	-10.6379
▁نب	-10.638
الفن	-10.6382
خال	-10.6382
▁ساو	-10.6384
▁الملكي	-10.6389
لندا	-10.6413
قدام	-10.6426
▁استقلال	-10.6426
مية	-10.6435
▁معد	-10.644
▁خيالي	-10.6445
▁مقابل	-10.6448
شيش	-10.6448
ايمان	-10.6453
يتان	-10.6459
تنوع	-10.6465
▁يثب	-10.6465
▁اناش	-10.647
▁بالول	-10.6472
ثنائي	-10.6474
رغ	-10.6487
▁فراغ	-10.649
ابوك	-10.6507
لاك	-10.6521
▁مه	-10.6524
جزئ	-10.6525
▁مفك	-10.654
▁بحلا	-10.6542
محمد	-10.6545
ربوا	-10.6546
لشعب	-10.6548
▁الدر	-10.655
فن	-10.6551
▁للج	-10.6555
يعني	-10.6567
صمم	-10.6568
▁ابر	-10.6569
حش	-10.657
فاتي	-10.6571
فتن	-10.6575
قبرص	-10.6587
▁عق	-10.6595
▁يوتا	-10.6601
▁ارح	-10.661
اماكن	-10.6616
ترايتراياكونتان	-10.6622
2008	-10.6635
▁فاصل	-10.6637
لحجار	-10.6638
مد	-10.6649
▁فضائ	-10.665
▁اختصارا	-10.6657
▁مونش	-10.6657
ويس	-10.6667
عامود	-10.6673
الموضوع	-10.6692
▁قدره	-10.6705
▁استر	-10.6713
▁182	-10.6727
▁يظ	-10.6734
ساحل	-10.6738
لايا	-10.6744
اديس	-10.6752
يتشي	-10.6758
عامل	-10.6758
▁بوليم	-10.6759
كوماموتو	-10.6762
▁الدمو	-10.6763
ريس	-10.6769
▁ويج	-10.6771
عدة	-10.6774
باسكال	-10.6774
▁الفقر	-10.6782
▁التخ	-10.6782
▁بذ	-10.679
تحرير	-10.6799
غان	-10.68
دل	-10.6802
دكتور	-10.681
صباحك	-10.681
عندهم	-10.6813
ستان	-10.6819
▁بات	-10.6821
لاردن	-10.6824
ياماغوتشي	-10.6836
27	-10.684
سبق	-10.684
كيوتو	-10.6843
مؤسسات	-10.6847
بعا	-10.6849
▁جزا	-10.6862
غيفو	-10.6865
ياماغاتا	-10.6866
سؤال	-10.6867
217	-10.687
شرك	-10.6873
لوث	-10.6878
▁اهيم	-10.6886
مون	-10.6891
▁هان	-10.6891
حرر	-10.6897
المدار	-10.6907
▁مصفوف	-10.6914
▁القبر	-10.6914
الكين	-10.6918
▁167	-10.6923
▁خطي	-10.6932
83	-10.6933
تقر	-10.6936
▁الرس	-10.6941
اجهاد	-10.6942
متخلف	-10.6945
حاليا	-10.6945
ظيم	-10.6948
▁دائ	-10.695
باطل	-10.6953
طاق	-10.6954
شخصية	-10.6954
▁اتفق	-10.6958
▁نشا	-10.696
لاعب	-10.696
يو	-10.6971
تحويل	-10.6976
▁الكب	-10.6976
لقب	-10.6983
▁لكي	-10.6992
سل	-10.6992
▁خليجي	-10.6994
▁ومغ	-10.7003
يانك	-10.7008
22	-10.7009
داخل	-10.7009
▁زو	-10.7015
▁النظ	-10.7022
خده	-10.7022
عائل	-10.7031
قطب	-10.7033
▁التل	-10.7039
▁الالكترون	-10.7046
لدي	-10.7048
▁تناف	-10.705
▁كهر	-10.7057
▁ظه	-10.7058
▁القض	-10.7062
صين	-10.7065
▁المعت	-10.7069
▁سلامه	-10.7069
لاد	-10.707
ركين	-10.7075
العواصف	-10.7079
▁العم	-10.7079
مها	-10.7088
▁رابط	-10.7091
▁تدر	-10.7096
البصرة	-10.7101
▁بذل	-10.7103
▁ميد	-10.7106
سياج	-10.7106
▁زن	-10.711
هتم	-10.7111
▁بالش	-10.7113
الباقي	-10.712
المسؤولي	-10.7126
حوالي	-10.7137
يقية	-10.7164
▁معلوم	-10.7165
موتو	-10.7165
▁سما	-10.7167
اختصار	-10.7179
شركة	-10.7183
اهج	-10.7183
الاردن	-10.7197
الاسبانية	-10.7198
رسي	-10.72
▁التواب	-10.7203
لنص	-10.7231
▁بونغو	-10.7234
2.	-10.7234
تجر	-10.7236
راه	-10.7238
كتير	-10.7244
البرتغال	-10.7244
سيف	-10.7244
▁حيوان	-10.7252
روبول	-10.7254
▁الجم	-10.7266
▁اجد	-10.7277
▁منحن	-10.7277
▁البرمج	-10.728
▁جود	-10.7285
ديب	-10.7286
يان	-10.7288
استر	-10.729
▁جده	-10.7292
▁يتنا	-10.7295
كنعان	-10.7297
التركية	-10.7298
▁وبي	-10.7312
بالاف	-10.7315
عارف	-10.7318
نينغ	-10.7322
لمغرب	-10.7325
▁قطع	-10.733
▁وغير	-10.7332
لغ	-10.7343
برمجيات	-10.7343
▁مكر	-10.7345
▁كام	-10.7356
▁غيغا	-10.7361
زيد	-10.7363
▁لتس	-10.7365
ايرلندا	-10.7366
هون	-10.7376
263	-10.7381
ظفي	-10.7382
▁سلس	-10.7383
لمؤ	-10.7399
رابي	-10.741
والي	-10.7415
▁يحفظ	-10.7417
▁بير	-10.7423
▁تطل	-10.743
كاتب	-10.7432
هبل	-10.7435
ملفات	-10.7435
جرب	-10.745
سوك	-10.7451
▁بله	-10.7457
طالب	-10.7461
قليل	-10.7463
▁جبا	-10.7467
تاقه	-10.7479
كوكس	-10.7484
رمين	-10.749
▁تتغ	-10.7491
لحب	-10.7493
الحمدلله	-10.7497
عسكري	-10.7507
▁خيري	-10.7514
ثلاثة	-10.7517
عقول	-10.7525
بط	-10.7527
هيرم	-10.7528
طائر	-10.7531
وظه	-10.7536
رئاس	-10.7539
المدرسي	-10.754
▁الحلو	-10.7545
1244	-10.7548
ضلع	-10.7548
▁عنصري	-10.7551
▁يطل	-10.7553
مدن	-10.7555
▁يسا	-10.756
▁الفني	-10.756
نقط	-10.7561
▁ماتسو	-10.7569
▁المعج	-10.757
▁عامة	-10.758
غل	-10.7583
رار	-10.7583
▁باقل	-10.7587
مسك	-10.7588
▁كيمي	-10.7593
▁والق	-10.7593
1284	-10.7604
وابط	-10.761
▁نووي	-10.7612
راسه	-10.7613
ريا	-10.7619
▁الصين	-10.7622
▁المق	-10.7638
▁عثماني	-10.7639
▁التساهمي	-10.7639
عالية	-10.7647
سادي	-10.765
▁اصول	-10.765
▁حديث	-10.7651
▁الاسبان	-10.7655
انكو	-10.7662
ربع	-10.7663
ورا	-10.7665
▁المصري	-10.7665
▁مباشر	-10.7666
▁الانجليزي	-10.7667
▁الديمقراطي	-10.7667
واصل	-10.7674
راد	-10.7675
▁عص	-10.7676
▁نحر	-10.7686
▁منشا	-10.7686
لتقدير	-10.7686
▁الخامل	-10.7686
▁اغريقي	-10.7691
▁رئيسي	-10.7695
▁جمهوري	-10.7701
لضغط	-10.7701
▁حاله	-10.7708
لتكامل	-10.7711
مانس	-10.7714
▁لاسع	-10.7715
▁الجاهلي	-10.7715
▁اندونيسي	-10.7715
▁واع	-10.7717
ليل	-10.7717
سية	-10.7719
▁34	-10.7719
جتهد	-10.7722
▁منغولي	-10.7727
▁والامر	-10.7728
لهاشمي	-10.7733
ؤمن	-10.7736
▁ماي	-10.7737
▁مدين	-10.7738
▁البديل	-10.7741
تجاوز	-10.7748
▁استح	-10.775
▁الشج	-10.7754
سيكو	-10.7762
تافه	-10.7764
135.	-10.777
▁طير	-10.777
▁عصب	-10.7773
وتش	-10.7774
▁الحساب	-10.7777
حبيب	-10.7778
87	-10.778
بطل	-10.778
نقص	-10.7781
لش	-10.779
▁الشخصي	-10.7791
سويدي	-10.7796
▁الامبراطور	-10.7797
▁مسؤول	-10.7798
▁قائم	-10.7804
عمر	-10.7805
▁التقوي	-10.7809
سادس	-10.7816
لخل	-10.7822
284	-10.7829
▁انفج	-10.7831
لوريد	-10.7832
▁ارت	-10.7836
سريلانك	-10.7839
وبنا	-10.7841
▁حض	-10.7843
ويم	-10.7846
▁1003.1	-10.7851
موريتاني	-10.7851
وستفاليا	-10.7852
▁11691	-10.7852
تيرفيثال	-10.7852
واكيزاشي	-10.7852
▁اصطلاح	-10.7852
▁الافرواسيوية	-10.7852
▁البطالمةسلال	-10.7852
▁البوتاسيوم	-10.7852
▁الديناميكية	-10.7852
▁بالريفيرا	-10.7852
▁بورغندي	-10.7852
▁حافظين	-10.7852
▁مايبيلها	-10.7852
▁والزعرنه	-10.7852
▁اعتقاد	-10.7852
جازولين	-10.7852
42,7	-10.7852
نيجيريا	-10.7852
▁السيزيوم	-10.7852
▁غرناطة	-10.7852
▁هالادمي	-10.7852
▁الايجابي	-10.7852
▁المنفردة	-10.7852
▁طاعتك	-10.7852
▁ناغويا	-10.7852
▁تستغرقها	-10.7852
هليوبوليس	-10.7852
▁تفرجت	-10.7852
▁ماخوذ	-10.7852
▁طوكيو	-10.7852
▁تقتنع	-10.7852
▁ابدعوا	-10.7852
▁اتصالات	-10.7852
▁يزورها	-10.7852
▁لامتغيرية	-10.7852
▁بالرضاعة	-10.7852
▁ليوبولد	-10.7852
▁واستراليا	-10.7852
اشتراكي	-10.7852
▁الارتياب	-10.7852
▁تساهمية	-10.7852
▁بيتبرع	-10.7852
▁الوحشي	-10.7852
▁ازدياد	-10.7852
▁بتتعب	-10.7852
▁الجيلاتين	-10.7853
▁مياغي	-10.7853
مبورغ	-10.7853
▁11741	-10.7853
▁1000000000	-10.7853
▁البرافينات	-10.7853
▁خدعت	-10.7853
▁غزتهم	-10.7853
▁شفويا	-10.7853
▁هارميه	-10.7853
ظواهر	-10.7853
▁الانبساط	-10.7853
لمنحن	-10.7853
▁11831	-10.7853
▁ثانوية	-10.7853
جستير	-10.7853
مائه	-10.7853
▁مؤتمر	-10.7853
▁شينيتشي	-10.7853
▁والغين	-10.7853
▁1003.1,200	-10.7853
استيعاب	-10.7853
▁بلاستيك	-10.7853
▁118612	-10.7854
▁بيوتان	-10.7854
▁النرويج	-10.7854
المبالغ	-10.7854
مزخرف	-10.7854
▁مصنفة	-10.7854
يقولو	-10.7854
▁تشكيل	-10.7854
▁حاويات	-10.7854
مئوية	-10.7854
▁1,000,000	-10.7854
▁1867	-10.7854
▁يتبنو	-10.7854
▁الغريغ	-10.7854
▁الشيطان	-10.7854
▁نهائي	-10.7854
▁لصاح	-10.7855
▁والاربع	-10.7855
▁عشائر	-10.7855
▁وشركات	-10.7855
▁صجراء	-10.7855
▁ويحتو	-10.7855
▁والجماعة	-10.7856
ايبولا	-10.7856
▁اللاحق	-10.7856
سلسل	-10.7856
▁3,1	-10.7857
▁تنصيب	-10.7857
▁نفوذ	-10.7857
▁راديان	-10.7857
▁1958	-10.7857
▁1955	-10.7857
قوت	-10.7857
كاثوليك	-10.7857
1498	-10.7858
▁متساوية	-10.7858
▁2009	-10.7858
▁ايقاع	-10.7858
1660	-10.7858
▁بغض	-10.7859
▁ضروري	-10.7859
▁التحظر	-10.7859
▁ملحوظ	-10.7859
▁مغربي	-10.786
▁المقابل	-10.786
▁انطوني	-10.786
طفلة	-10.786
▁1952	-10.786
ايقظ	-10.786
▁بالتحي	-10.786
▁وحلوها	-10.7861
▁اوفيس	-10.7861
▁هالحركه	-10.7861
1199	-10.7861
▁متعدد	-10.7861
▁نيامي	-10.7862
▁تعزز	-10.7862
▁يلبس	-10.7862
▁تشرفن	-10.7862
اقليم	-10.7862
1220	-10.7863
ذهب	-10.7863
▁القاهرة	-10.7863
▁2001	-10.7863
▁تيترا	-10.7863
▁لايملك	-10.7863
▁لحوم	-10.7864
▁الجليل	-10.7864
▁الصافي	-10.7865
▁ماليزيا	-10.7865
لمخلوط	-10.7865
▁الامطار	-10.7865
▁فرسان	-10.7865
نخفض	-10.7866
▁سريلانكا	-10.7866
ماليزي	-10.7867
▁مقسمة	-10.7867
1229	-10.7867
صاوغات	-10.7868
اشتغ	-10.7868
▁الفلاش	-10.7868
بنديكتي	-10.7868
▁المؤتمر	-10.7869
▁الهليوم	-10.7869
▁سافونا	-10.7869
▁التسعي	-10.7869
اسكند	-10.7869
ولك	-10.7871
▁الصيام	-10.7871
▁عقائد	-10.7871
▁اينشت	-10.7871
▁المتوقع	-10.7871
▁للوقت	-10.7872
939	-10.7872
▁نسع	-10.7872
▁ينتقم	-10.7872
كيماوي	-10.7872
▁الروذ	-10.7872
▁58	-10.7873
▁كولومبية	-10.7874
1236	-10.7875
▁ارتفاعه	-10.7875
▁الريح	-10.7875
ضل	-10.7876
▁موسكو	-10.7876
▁شيزو	-10.7877
▁كربين	-10.7877
▁المثلثية	-10.7877
▁يوفق	-10.7877
ستكشف	-10.7877
▁المساح	-10.7877
▁الفضائية	-10.7877
▁السلفيين	-10.7877
▁الهواء	-10.7878
▁نوميغ	-10.7878
▁الامكاني	-10.7878
▁التيترا	-10.7879
▁الشفتين	-10.7879
1,	-10.788
1210	-10.788
▁والث	-10.788
▁الاستغ	-10.788
▁العرش	-10.7881
يذ	-10.7883
1,6	-10.7883
روتون	-10.7883
▁طليع	-10.7884
▁فولت	-10.7885
▁النصي	-10.7886
▁يمنح	-10.7887
▁السلبي	-10.7887
▁قضائي	-10.7888
▁الحضري	-10.7891
▁خايف	-10.7891
▁التجمع	-10.7891
▁جزير	-10.7892
1665	-10.7893
▁مقعر	-10.7893
▁بمقت	-10.7894
▁ينساها	-10.7894
▁بالمغرب	-10.7894
▁تقريب	-10.7894
▁بالبي	-10.7894
وساكا	-10.7895
اساليب	-10.7896
4.7	-10.7896
▁مواهب	-10.7897
▁سعره	-10.7899
▁زكر	-10.7899
جهه	-10.7901
▁المكثور	-10.7902
تح	-10.7902
ثقوب	-10.7903
▁بقربي	-10.7904
فانديوم	-10.7906
▁اجهادما	-10.7907
▁مخلوقات	-10.7907
لمس	-10.7908
▁الولاء	-10.7908
▁بسلب	-10.7909
▁مخت	-10.791
▁الخطاب	-10.791
▁وتغ	-10.791
تشوف	-10.7911
زيتي	-10.7912
فارط	-10.7912
▁المشبعة	-10.7912
▁الذهبي	-10.7912
▁مقابر	-10.7913
كسيل	-10.7914
▁الضغ	-10.7914
بطاري	-10.7914
▁واصبح	-10.7915
▁العزي	-10.7915
▁جرا	-10.7916
▁عصبونية	-10.7917
▁الياباني	-10.7922
▁فتيات	-10.7922
▁المستشار	-10.7926
▁المتكررة	-10.7926
▁قسمين	-10.7926
▁الفيوم	-10.7927
▁رواية	-10.7927
▁وعج	-10.7929
▁متجاوزة	-10.7929
▁متطور	-10.793
▁غرواني	-10.793
مطيافي	-10.793
▁للغاز	-10.7931
▁الستة	-10.7931
▁الحيوانات	-10.7932
▁امريك	-10.7932
سامه	-10.7932
▁نيو	-10.7933
▁التنفسي	-10.7935
ولية	-10.7935
لثوي	-10.7936
▁الهولندي	-10.7936
▁متعب	-10.7937
مشرو	-10.7939
▁سلوك	-10.794
▁عرفت	-10.794
▁الاوسط	-10.7942
59.	-10.7943
▁المتحدث	-10.7943
▁هولندا	-10.7944
▁والسعود	-10.7947
05,	-10.7948
▁مكتوب	-10.7949
▁الجنس	-10.7952
امية	-10.7953
يكفي	-10.7953
▁اسبان	-10.7953
تقطير	-10.7955
انفجار	-10.7955
▁لتطوي	-10.7956
▁فلوريد	-10.7956
▁راسمالي	-10.7956
▁هتلاق	-10.7958
▁الفينيقي	-10.7961
▁السيئ	-10.7961
▁كربوني	-10.7962
نوات	-10.7963
خامس	-10.7964
▁العشرين	-10.7966
▁المانج	-10.7966
▁الاستث	-10.7969
▁زوجته	-10.7971
▁المتشكل	-10.7972
▁الزر	-10.7972
بغداد	-10.7973
ترافق	-10.7976
▁فريد	-10.7977
حيطه	-10.798
▁زينها	-10.798
▁والمؤ	-10.7981
▁ويعد	-10.7982
▁الفتا	-10.7983
▁الاكادي	-10.7984
رقي	-10.7984
▁قيمتها	-10.7986
▁الجيل	-10.7986
▁فرانك	-10.7987
▁وغ	-10.7987
▁مخط	-10.7988
▁البترول	-10.7988
▁البديله	-10.799
135.6	-10.7991
▁فاسد	-10.7994
▁كورت	-10.7994
▁لورن	-10.7994
▁خاب	-10.7995
▁امثال	-10.7996
▁1965	-10.7997
▁تزي	-10.7997
هذيل	-10.7998
▁الحاصل	-10.7998
▁بدك	-10.7999
▁يسكن	-10.8
▁صوتهم	-10.8002
▁للذرة	-10.8003
▁منغوليا	-10.8003
▁باشوا	-10.8005
لطبخ	-10.8006
▁هييان	-10.8007
▁فلوريدا	-10.801
▁فتكل	-10.801
▁وشمال	-10.8011
▁رقي	-10.8014
▁غريم	-10.8016
مغناطيسي	-10.8017
▁الكلاسيكية	-10.8017
▁شفت	-10.8018
قاهر	-10.802
▁وامريكا	-10.802
▁التغ	-10.8021
▁منزلي	-10.8022
▁فريدر	-10.8022
▁الاصاب	-10.8024
▁اثرا	-10.8026
▁وتسمي	-10.8026
ثري	-10.8027
بينهم	-10.8027
▁التقدير	-10.8028
مغولي	-10.8029
▁يشي	-10.803
فاكه	-10.8032
▁بعي	-10.8036
وشي	-10.8036
نيشي	-10.8036
اسواق	-10.8036
▁92	-10.8038
▁تراجع	-10.804
▁حكا	-10.8041
حتما	-10.8041
▁حقا	-10.8041
▁للجامعات	-10.8042
رضي	-10.8043
▁توموي	-10.8049
▁احدهما	-10.805
مطلوب	-10.8052
راك	-10.8054
▁تفس	-10.8058
▁للقضاء	-10.8058
جعليات	-10.8061
▁تجمع	-10.8061
▁1988	-10.8062
ايسلند	-10.8063
▁وطبيب	-10.8065
▁بطون	-10.8065
▁الروث	-10.8066
▁فلور	-10.8068
▁التساهمية	-10.807
▁براز	-10.8072
▁حديثة	-10.8073
▁والاط	-10.8075
▁النق	-10.8076
▁الشيع	-10.8076
نعوه	-10.8077
▁الرومانية	-10.8078
▁ميجابايت	-10.8081
09	-10.8083
احي	-10.8083
مونا	-10.8092
▁بحكي	-10.81
توائية	-10.81
▁المصرية	-10.8101
لاث	-10.8103
صابه	-10.8103
▁نووية	-10.8107
▁ماتسوي	-10.8108
يتركه	-10.8108
▁الخاملة	-10.8112
▁معقد	-10.8112
▁البيئ	-10.8113
▁بلادي	-10.8113
▁الفارط	-10.8119
▁اشعل	-10.8121
تصوير	-10.8121
الفحم	-10.8122
مفروض	-10.8123
▁الهالو	-10.8125
▁متوسطية	-10.8127
نرسية	-10.8127
▁ني	-10.8127
لاصلي	-10.8127
▁الراية	-10.8128
قديس	-10.8128
▁يوشيها	-10.813
▁بتعرف	-10.8131
▁حاصل	-10.8132
▁منتج	-10.8137
▁التشا	-10.8139
روجين	-10.8141
▁خش	-10.8142
57.	-10.8143
رتكز	-10.8146
▁وينتج	-10.8148
▁المضاد	-10.8148
ابوا	-10.8153
▁عصبون	-10.8153
▁يفهم	-10.8157
▁الصوفي	-10.8157
▁الشت	-10.8157
اسيس	-10.8159
سجد	-10.816
▁احترام	-10.8162
صوت	-10.8163
احيه	-10.8165
دج	-10.8166
▁124412	-10.8166
▁القوية	-10.8166
▁اوروب	-10.8166
يعين	-10.8167
▁تقلي	-10.8174
▁بالاش	-10.8178
▁السوائل	-10.8179
▁الوزنية	-10.8179
▁مقطع	-10.8192
▁السلط	-10.8192
▁المنق	-10.8193
ائف	-10.8196
▁يبحث	-10.8199
▁وصوت	-10.82
مروا	-10.8204
صال	-10.8204
▁التجار	-10.8206
▁صو	-10.8213
توي	-10.8214
هات	-10.8214
▁ارسطو	-10.8218
فوري	-10.8222
▁مستقر	-10.8222
▁الحرو	-10.8223
▁الاحترا	-10.8224
تحريرها	-10.8224
اجنب	-10.8233
▁المث	-10.8234
▁كينتا	-10.8237
▁327	-10.8238
حاسد	-10.8239
▁الاحت	-10.8241
▁الغذا	-10.8242
▁المائية	-10.8243
سيام	-10.8245
▁معطي	-10.8246
▁الاكسجين	-10.8246
،000	-10.825
اكيتا	-10.825
يرسب	-10.8251
▁الفاكه	-10.8251
▁الوث	-10.8253
▁ذاتها	-10.8254
هكذا	-10.8257
مريضه	-10.8257
▁جورجي	-10.8258
اجاص	-10.8261
▁المشاهد	-10.8262
صيه	-10.8263
▁توسع	-10.8264
▁ويعتقد	-10.8272
بص	-10.8272
▁المدخل	-10.8275
▁الماني	-10.8277
اللون	-10.8278
▁102	-10.8278
توابع	-10.8281
▁تربط	-10.8282
يارب	-10.8286
▁خفيف	-10.8288
▁ديننا	-10.8291
▁خطير	-10.8291
▁بيتا	-10.8292
اكن	-10.8299
▁مارك	-10.83
▁انثوي	-10.83
▁دعو	-10.8301
▁الفلعا	-10.8307
لعنه	-10.8312
المطر	-10.8312
▁وجوه	-10.8314
▁يوغ	-10.8316
▁فضا	-10.8317
ارجنتين	-10.832
▁رسوم	-10.832
▁1891	-10.8321
ناك	-10.8324
▁تخصص	-10.833
▁معدني	-10.8332
▁مسخر	-10.8332
▁2,1	-10.8334
▁اكتشف	-10.8336
▁180	-10.8339
▁المالي	-10.8341
▁وتقوي	-10.8341
▁اغريقية	-10.8343
▁الوقف	-10.8344
▁مستح	-10.8347
ترا	-10.8348
▁مبرهن	-10.8349
داب	-10.8358
▁برودو	-10.8361
لاغير	-10.8365
▁1221	-10.8366
▁تحص	-10.8367
لكثير	-10.8367
▁الكمومية	-10.8374
يار	-10.8374
جمال	-10.8377
رشد	-10.8385
▁التركي	-10.8387
امتنا	-10.8387
مقاطع	-10.8388
اخلاق	-10.8388
▁1661	-10.839
▁الاستر	-10.8397
▁ويحاو	-10.8397
▁1927	-10.84
كات	-10.8404
همه	-10.8406
▁للسك	-10.8409
الاطراف	-10.8414
ههه	-10.8414
عالمين	-10.8417
▁مفتي	-10.8417
▁راجع	-10.8418
▁سمع	-10.8422
▁62	-10.8424
▁اسعد	-10.8424
▁2010	-10.8425
▁خلاف	-10.8431
▁المدخ	-10.8438
▁ملون	-10.844
▁وحدك	-10.8442
▁سيبو	-10.8443
يهود	-10.8453
لسكوت	-10.8454
▁وخو	-10.8456
▁العن	-10.8456
شك	-10.8459
عرفوا	-10.8461
نق	-10.8466
اردو	-10.8468
▁يغن	-10.847
▁والفل	-10.8476
▁قار	-10.8477
▁الفيزيائي	-10.8482
▁غلا	-10.8485
دنيا	-10.8489
▁وعادة	-10.8491
▁1932	-10.8492
▁44	-10.8498
خطي	-10.8498
▁القانوني	-10.8502
▁الفيز	-10.8502
▁دع	-10.8503
واء	-10.8507
▁الارد	-10.851
8.	-10.8514
▁يكونون	-10.8517
▁بهم	-10.852
▁دوك	-10.8521
▁السما	-10.8522
▁خبر	-10.8524
▁322	-10.8533
دهم	-10.8536
▁ياسو	-10.8541
▁لينين	-10.8542
▁حاص	-10.8545
▁وثلاث	-10.8547
خيرا	-10.8548
▁سيرا	-10.8556
ركون	-10.8562
احتكا	-10.8565
▁ميتسو	-10.857
▁ومك	-10.8574
▁شعر	-10.8576
▁المكون	-10.8577
تغلب	-10.8578
▁بالقر	-10.858
▁فرن	-10.8581
▁ازد	-10.8581
▁حس	-10.8583
ارات	-10.8586
▁القضائ	-10.8587
▁اولفين	-10.8591
▁ادي	-10.8595
كدا	-10.8595
الترتيب	-10.8597
فلوس	-10.8598
راده	-10.8598
لكوكس	-10.8599
▁الشو	-10.8599
▁اوي	-10.8604
▁حالي	-10.8606
ملكو	-10.8608
دفع	-10.8614
المفاعل	-10.8618
▁تخس	-10.8622
▁احل	-10.8625
اغو	-10.8632
▁الفعل	-10.8634
جماع	-10.8634
▁نباتي	-10.8635
طرفين	-10.8636
يولوجي	-10.8641
▁سيتشي	-10.865
▁49	-10.8652
▁مات	-10.8653
الخلق	-10.8655
▁كهرو	-10.8655
روف	-10.8656
▁كاوامو	-10.8658
▁ضا	-10.8668
▁رئيسين	-10.867
▁افقي	-10.8672
▁البرا	-10.8677
رضاع	-10.8685
غالب	-10.8687
▁الاطراف	-10.8688
▁البصرة	-10.8693
▁دال	-10.8696
فنان	-10.8698
اتسوشي	-10.87
▁دبل	-10.8706
▁اشار	-10.8712
لرائح	-10.8714
بكة	-10.872
ربط	-10.8726
▁افتر	-10.8732
▁الباق	-10.874
هيرو	-10.8741
اجر	-10.8744
▁ووضح	-10.8747
▁توف	-10.8753
جابه	-10.8757
03.	-10.8758
▁وسي	-10.8758
▁المش	-10.876
4.	-10.8762
▁امن	-10.8762
▁اختي	-10.8762
▁36	-10.8767
▁مصري	-10.8769
▁مصاص	-10.8771
▁شام	-10.8773
▁تفق	-10.8774
▁بعم	-10.8775
كاوا	-10.8778
▁ترجم	-10.8781
77	-10.8781
واطي	-10.8788
كوتشي	-10.8797
▁امت	-10.8797
فارغ	-10.88
انيه	-10.8803
سيار	-10.8803
▁صوته	-10.8804
طابقة	-10.8808
▁تايل	-10.8811
▁كوسي	-10.8812
ثل	-10.8815
ضوئي	-10.8816
تشابك	-10.8816
▁المشرو	-10.8819
▁هجرية	-10.8824
حياك	-10.8826
▁بنائي	-10.8833
▁نيكا	-10.8839
يحمي	-10.884
ماكو	-10.8843
ديس	-10.8846
▁تنس	-10.8847
▁ثنائيا	-10.8852
اقسام	-10.8852
▁لتش	-10.8853
▁كنعان	-10.8861
لانث	-10.8861
▁اشت	-10.8863
▁القراء	-10.8864
26	-10.8864
زر	-10.8865
▁ايش	-10.8874
اليه	-10.8875
▁والهند	-10.8885
لعن	-10.8888
▁يهد	-10.8889
حتي	-10.8893
▁ماتسويا	-10.8902
الكاين	-10.8909
بيعي	-10.8915
▁نشط	-10.8916
▁كراك	-10.8918
▁يشت	-10.892
▁تقن	-10.8921
▁للف	-10.8927
عترف	-10.8933
▁غو	-10.8939
ادع	-10.8949
186	-10.895
▁103	-10.8955
البان	-10.8957
يطلع	-10.8963
▁النبو	-10.8969
▁حالك	-10.897
▁ويوم	-10.8971
▁خوا	-10.8976
▁واستخدام	-10.8982
▁ثاب	-10.8983
▁جميعا	-10.8988
▁المقد	-10.899
▁سمح	-10.8991
لبنانية	-10.8996
▁الابن	-10.9
▁الخطا	-10.9
رش	-10.9003
▁نجم	-10.9009
غوري	-10.9009
▁ير	-10.9013
▁بالق	-10.9014
▁اضل	-10.9016
دقيق	-10.9016
خص	-10.9019
▁انشا	-10.9021
تحيي	-10.9027
كب	-10.9027
توحيد	-10.9033
نتشي	-10.9035
اغلبه	-10.9035
روكي	-10.9042
▁مفت	-10.9046
▁محل	-10.9049
▁ناغا	-10.9053
▁نااو	-10.9063
احساس	-10.9066
▁متز	-10.9068
زغ	-10.9069
حكم	-10.9073
مالية	-10.9073
بدائ	-10.9074
▁للعر	-10.9075
▁تركي	-10.9076
▁حراري	-10.9082
▁حالا	-10.9099
يستا	-10.91
▁خان	-10.91
690	-10.9105
رباد	-10.9107
يشو	-10.9113
وفر	-10.912
ائي	-10.912
▁ولله	-10.9122
ضار	-10.9124
▁ويه	-10.9128
الحق	-10.9131
▁عملي	-10.9133
▁المانية	-10.9142
▁باسر	-10.9144
صحه	-10.9145
تسلسل	-10.9157
▁فقد	-10.9166
▁خو	-10.9175
▁نوا	-10.9176
▁السيل	-10.918
▁بالبر	-10.9184
يمه	-10.9185
▁صبا	-10.9185
ادم	-10.9186
سيه	-10.9189
▁كوما	-10.9189
ادخ	-10.9194
▁متصل	-10.9196
▁اهد	-10.92
انها	-10.9203
نساها	-10.9207
▁انث	-10.9212
خيل	-10.9214
صحف	-10.9216
▁واف	-10.9219
▁كابو	-10.9222
▁عض	-10.9223
زائ	-10.9226
▁اشع	-10.923
لاكو	-10.9231
▁نيه	-10.9236
جتنا	-10.9246
ميسا	-10.9247
لترايتراياكونتان	-10.9249
▁عون	-10.925
▁قطن	-10.9251
شعرية	-10.9276
شبيه	-10.9291
احترام	-10.9292
▁عندنا	-10.9295
حل	-10.9296
الموق	-10.9308
الاولي	-10.931
▁منحني	-10.9315
▁توج	-10.9316
86	-10.9319
.7	-10.9321
شنط	-10.9324
▁للنب	-10.933
▁لست	-10.9338
▁جا	-10.9347
زول	-10.9348
الامريكي	-10.9352
▁شيرات	-10.9367
▁رش	-10.9379
▁غربي	-10.9394
لادب	-10.94
اكرم	-10.9406
بيري	-10.9406
مستوي	-10.9406
افد	-10.9407
▁واجه	-10.9415
▁افراد	-10.9417
▁لتبر	-10.9425
▁وتبع	-10.9432
عطاء	-10.9436
جزات	-10.944
▁واعد	-10.9443
ديله	-10.9448
▁تاكي	-10.9456
سجن	-10.9464
ادية	-10.9464
متغير	-10.9468
▁هلا	-10.9473
18	-10.9473
▁حاج	-10.9474
▁متاح	-10.9474
منك	-10.9476
قرف	-10.9497
▁اكينو	-10.9497
193	-10.9501
زراع	-10.951
التماس	-10.9512
▁والج	-10.9521
لعملية	-10.953
▁نج	-10.9542
نزيل	-10.9544
▁بيولوجي	-10.9544
محاذي	-10.9545
▁سواد	-10.9547
زقي	-10.9548
▁بلج	-10.9556
جوم	-10.9557
▁طر	-10.9559
▁الكربونية	-10.9565
▁العلو	-10.9565
319	-10.9565
▁سوي	-10.9571
▁اصطناعي	-10.9572
▁165	-10.9578
▁واللغ	-10.9579
بيين	-10.9591
المحكم	-10.9598
التقسيم	-10.9599
▁تشر	-10.9606
استخدامه	-10.9607
▁هكسين	-10.961
محلول	-10.9612
لفت	-10.9619
رقه	-10.9619
جغرافيا	-10.962
سعودي	-10.9625
▁جنسي	-10.9633
طون	-10.9648
نذال	-10.9649
اتشي	-10.9652
▁بينز	-10.9658
ياك	-10.9669
كوز	-10.9669
▁هون	-10.9673
نتقل	-10.9678
لاسعار	-10.968
عندك	-10.968
▁غاليل	-10.9691
▁رقمي	-10.9692
▁مض	-10.9693
▁ارد	-10.9698
0.	-10.9715
زاو	-10.9719
تلاف	-10.972
روض	-10.9727
▁مقطعية	-10.9736
اجرام	-10.974
▁لكو	-10.9742
رخو	-10.9746
▁مارين	-10.9769
▁الفتر	-10.9773
▁11781	-10.9774
▁النيوت	-10.9779
بعضها	-10.9783
▁داعي	-10.9784
رسة	-10.9784
قو	-10.9789
▁انف	-10.9792
▁الحجا	-10.9803
طويل	-10.9812
مهندسو	-10.9812
ربيع	-10.9814
▁ميغ	-10.9818
▁غبا	-10.9822
لحن	-10.9828
▁احبت	-10.983
▁الحا	-10.9836
ينو	-10.9837
28	-10.984
سياسة	-10.9843
كازو	-10.9844
▁برس	-10.9845
جرو	-10.9848
الت	-10.9853
ناظ	-10.9854
▁الغري	-10.9855
معات	-10.9864
ركة	-10.9866
ئي	-10.9868
▁النفطي	-10.9871
نشط	-10.9872
فوسفور	-10.9872
اسود	-10.9886
▁مخا	-10.9886
▁المشترك	-10.9893
▁القابل	-10.9895
▁الرمل	-10.9895
كوك	-10.9895
▁كرا	-10.9897
كني	-10.9898
▁ويرم	-10.9902
▁الحش	-10.9904
تطلع	-10.9905
سور	-10.9906
عصاب	-10.9907
كنه	-10.9912
▁المعاد	-10.9926
▁خلا	-10.9928
▁متح	-10.993
الشغل	-10.9934
فاي	-10.9941
▁شيرا	-10.9941
▁ويصل	-10.9942
ترزق	-10.9944
الاشوري	-10.9949
▁يعلن	-10.9954
▁معاد	-10.9956
▁العلام	-10.9956
▁السيا	-10.9958
مضلع	-10.9959
صو	-10.9971
هار	-10.9972
▁باني	-10.9973
الس	-10.998
▁العكس	-10.9986
عهم	-10.999
لخادم	-11.0006
▁لب	-11.0007
▁جسيمات	-11.0009
سوي	-11.0015
يعيش	-11.0019
▁53	-11.002
مشهور	-11.0028
▁الصن	-11.0054
بوا	-11.0055
▁تحديد	-11.0062
شب	-11.0069
▁القرد	-11.0083
جراء	-11.0083
▁الانك	-11.0088
نان	-11.0092
روماتي	-11.0093
حضار	-11.0109
▁التوام	-11.0116
▁غام	-11.0136
▁بالسر	-11.0141
▁قوية	-11.0141
▁يتن	-11.0145
▁شيم	-11.0148
▁بينها	-11.0148
▁كونه	-11.0149
▁باطل	-11.0157
▁فيلق	-11.0158
▁الفلا	-11.0158
اغني	-11.0168
لط	-11.0169
▁مرئي	-11.0173
مخرج	-11.0173
02.	-11.0181
▁صناعي	-11.0183
فرنسية	-11.0189
بروميدات	-11.021
▁تل	-11.0216
اهمه	-11.0244
▁القياس	-11.0248
▁النظا	-11.026
لنهايه	-11.0262
▁اعده	-11.0263
▁رف	-11.0268
ياق	-11.0273
▁متو	-11.0277
▁شهو	-11.0277
سيما	-11.0282
نحو	-11.0292
ايه	-11.0293
▁الخارج	-11.0297
▁ساك	-11.03
▁تناول	-11.0309
سمع	-11.0316
اسيو	-11.0318
▁الدب	-11.032
▁سنغال	-11.0326
,88	-11.0326
▁رحمت	-11.0329
▁الزم	-11.0339
ونيزي	-11.0355
▁مذك	-11.036
▁العق	-11.0362
▁كاد	-11.0363
▁الكوم	-11.0374
شور	-11.0377
لعو	-11.038
▁واحي	-11.0386
▁علو	-11.0387
▁العرض	-11.039
▁مستخدم	-11.0391
سعه	-11.0392
▁باسي	-11.0395
دعو	-11.0397
▁مكي	-11.0399
تكنولوجيا	-11.0416
حيوان	-11.0422
▁مستو	-11.0424
▁ديفي	-11.0429
لكيمياء	-11.0433
▁الديكا	-11.0434
▁اوس	-11.0434
ليك	-11.0455
▁الانجليزية	-11.0462
ضة	-11.0464
اكل	-11.0464
▁شوي	-11.0469
▁المنش	-11.047
▁مقام	-11.0491
سلمي	-11.0494
▁النطق	-11.0502
▁جيب	-11.0502
▁وقو	-11.0508
▁للاح	-11.051
لتراي	-11.0514
ونو	-11.0523
الفه	-11.0533
سبح	-11.0545
تحليل	-11.0546
▁الطبي	-11.0548
اوكتا	-11.0553
▁الخوا	-11.0573
منتخب	-11.0582
يولي	-11.0582
عن	-11.0588
رها	-11.0599
السرق	-11.06
نحاسي	-11.0603
لمحارب	-11.0612
▁انتقال	-11.0617
لاح	-11.0622
ايزو	-11.0626
▁الاز	-11.0632
لحم	-11.0634
▁بالاخر	-11.0642
ثني	-11.066
الع	-11.066
▁مدر	-11.0665
▁فو	-11.0674
راكب	-11.0676
▁الذه	-11.0686
لجزيئات	-11.0687
ظم	-11.0691
▁دف	-11.0692
▁قاب	-11.0703
▁ويهد	-11.0711
رسم	-11.0716
▁القاد	-11.0728
ضلعا	-11.0729
حوله	-11.073
الفرنسية	-11.0754
الفاض	-11.076
▁خيال	-11.0763
▁شرك	-11.0768
ارس	-11.0769
شيكو	-11.0777
ليلات	-11.0786
نتصر	-11.079
فقد	-11.08
انغول	-11.0806
لجزيء	-11.0809
طوط	-11.0814
نزي	-11.0817
▁القادر	-11.0818
لث	-11.0819
▁قران	-11.0826
▁البني	-11.0828
▁محاك	-11.0835
▁يشار	-11.0838
اركين	-11.0839
▁المعني	-11.0841
لتقويم	-11.0842
وكم	-11.0844
مقطعية	-11.0846
156	-11.085
▁يج	-11.0852
▁رسم	-11.0853
راي	-11.0856
لسكو	-11.0858
▁الذر	-11.0859
شف	-11.0863
باص	-11.0865
معرف	-11.0871
ميس	-11.0871
جيه	-11.0877
8,9	-11.0889
نته	-11.0894
▁النووية	-11.0903
الضاد	-11.0915
انك	-11.0948
توري	-11.0954
تابع	-11.0966
جهي	-11.0979
▁يتف	-11.0982
324	-11.0992
شيما	-11.0999
▁مدينت	-11.1016
▁تمام	-11.1026
▁المج	-11.1028
تنق	-11.103
▁المكسيكي	-11.1031
العراق	-11.1048
▁جس	-11.1052
قار	-11.1054
اة	-11.1069
▁ولاه	-11.107
غوات	-11.1071
لح	-11.1073
▁الباد	-11.1076
شابك	-11.1076
▁كانا	-11.1078
▁حياته	-11.1079
▁بالشا	-11.1079
▁عش	-11.1079
▁بطا	-11.108
تن	-11.1084
بريد	-11.109
▁وحا	-11.1102
▁وزي	-11.1109
▁هارا	-11.1115
وج	-11.1128
▁جر	-11.1133
▁يستع	-11.1143
▁بوس	-11.1152
▁تشو	-11.1159
▁حيل	-11.116
بوكي	-11.116
▁7,	-11.1161
▁اشكال	-11.1167
لوقا	-11.1171
▁السبع	-11.1173
تجرب	-11.1174
▁والحو	-11.1193
▁توز	-11.1199
رن	-11.12
▁السف	-11.12
▁الناحي	-11.1204
لاسنان	-11.1205
▁بالد	-11.1205
▁غاب	-11.1212
▁وج	-11.1215
▁برنا	-11.1224
▁المباشر	-11.1235
شري	-11.1241
▁موج	-11.1243
▁بيض	-11.1244
مقدسات	-11.1245
▁المخز	-11.126
نغشي	-11.1262
▁فصل	-11.1271
ظام	-11.1272
تل	-11.1274
عطر	-11.1279
ستبدل	-11.1285
▁عظ	-11.1291
▁واسعة	-11.1297
تاه	-11.13
معلم	-11.1314
كونو	-11.1322
ثو	-11.1328
▁الرسم	-11.1328
ودية	-11.1329
مياه	-11.1348
لسانيات	-11.1352
المشتركين	-11.1352
▁الط	-11.1358
▁الايثي	-11.136
▁هالح	-11.1361
فيين	-11.1366
لمنطقة	-11.1367
تربيع	-11.1373
ريكو	-11.1383
▁عقل	-11.1393
▁4,	-11.1395
▁للاست	-11.1397
▁المغول	-11.1411
غوست	-11.1413
▁لالا	-11.1421
ابسو	-11.1433
▁السويدي	-11.1436
▁للخل	-11.1443
▁ليج	-11.1449
▁كرك	-11.1452
▁عر	-11.1462
قسيم	-11.1464
بخير	-11.1473
اظل	-11.1485
▁نونا	-11.1504
ملاح	-11.1509
▁ربا	-11.152
▁عمو	-11.1531
تقليدية	-11.1538
▁والش	-11.154
فش	-11.1544
البا	-11.1547
هلا	-11.1549
▁نز	-11.1552
▁واغ	-11.1554
▁فقي	-11.1554
▁تاكامو	-11.1557
نادي	-11.1605
كد	-11.1614
▁للعال	-11.1618
▁لفر	-11.1619
▁البين	-11.1621
سوفت	-11.1626
يء	-11.1639
▁البد	-11.1639
لزل	-11.164
صوف	-11.1653
▁يحرك	-11.1662
طي	-11.1663
اسيا	-11.1668
بحب	-11.1669
▁ويص	-11.1674
لاتح	-11.1676
كومي	-11.168
بور	-11.1685
لمركب	-11.1692
▁هام	-11.1693
▁الاموي	-11.1695
ريستو	-11.1696
لاف	-11.1707
تعيد	-11.1709
▁والاخر	-11.1711
▁مكاني	-11.1714
قوله	-11.1716
اعيش	-11.1721
▁بنسب	-11.1724
لحرب	-11.1755
▁لعي	-11.1759
بث	-11.1765
▁خب	-11.1771
▁يسب	-11.1805
▁186	-11.1809
▁جرينل	-11.1814
مالاي	-11.1815
دني	-11.1822
▁بصف	-11.183
قانون	-11.184
▁العقو	-11.1841
▁قسم	-11.1853
▁والز	-11.1855
▁وط	-11.1855
▁بالاما	-11.1859
انسو	-11.1862
▁مثله	-11.1863
▁المفا	-11.1877
72	-11.1886
▁ناكات	-11.1889
▁النسبي	-11.1892
▁الاتي	-11.1895
عده	-11.1895
▁زوا	-11.19
ذكور	-11.1914
تذل	-11.1917
▁الصرا	-11.1926
▁يمني	-11.1929
ثا	-11.1937
▁مشت	-11.1943
▁حوا	-11.1945
تعدي	-11.1957
كربونية	-11.1965
▁تنسي	-11.1966
شعب	-11.1968
عكس	-11.1971
▁الصا	-11.1973
الصوت	-11.1975
ولف	-11.1976
نسب	-11.1993
عقلا	-11.1998
ذوب	-11.2006
سمك	-11.202
ايكي	-11.2024
كادا	-11.2064
▁غز	-11.207
▁فار	-11.2076
▁راب	-11.2081
وران	-11.2082
حكوم	-11.2082
▁وفر	-11.2084
▁تسم	-11.2088
▁للخلا	-11.2097
▁تذ	-11.2113
سلامي	-11.2116
▁التحلي	-11.212
▁يستح	-11.2121
هوم	-11.2141
ديو	-11.2152
اسطورية	-11.2159
دماء	-11.2163
لوط	-11.2166
طور	-11.2168
يره	-11.217
▁برون	-11.2171
قرار	-11.2172
اشبا	-11.2178
جمعه	-11.218
جنوبي	-11.218
ريت	-11.2186
شهيد	-11.2189
▁متن	-11.219
القلب	-11.2196
ميرات	-11.2201
البرتغالي	-11.2206
قاتل	-11.2207
▁كيك	-11.2213
▁الهج	-11.223
▁تب	-11.2235
ندي	-11.2236
مظل	-11.2236
ذه	-11.2243
اعمال	-11.2253
سمعت	-11.2256
كود	-11.2266
▁مفر	-11.2275
▁التربي	-11.2281
هن	-11.2282
▁جرين	-11.2286
▁نظا	-11.2288
▁الهي	-11.229
ليغ	-11.2298
▁ايامه	-11.231
يج	-11.2321
▁بنا	-11.2322
لتركي	-11.233
رامية	-11.2335
▁والجنوب	-11.2342
▁الاسطوري	-11.2343
▁فيزي	-11.2346
خي	-11.2347
▁المشتر	-11.2354
▁انتها	-11.2356
▁مرح	-11.2357
71	-11.2357
▁لح	-11.2371
جزي	-11.2373
....	-11.2377
▁بالقو	-11.2377
ستبشر	-11.2382
▁بنو	-11.2389
▁اليوناني	-11.239
بروتو	-11.2391
هلاك	-11.2408
57	-11.2408
▁صاف	-11.2412
▁الاحصائي	-11.2413
▁179	-11.2434
▁سال	-11.2439
حو	-11.2441
لولا	-11.2442
▁الهجا	-11.245
نبيه	-11.2454
بني	-11.2455
▁الرص	-11.2457
▁هجوم	-11.246
▁وسع	-11.2468
غلق	-11.2473
ضية	-11.2484
▁تعل	-11.2504
▁الشر	-11.2517
ثار	-11.2518
لاتينية	-11.2524
يتر	-11.2524
▁بيس	-11.2526
ميت	-11.254
▁الصناعي	-11.2543
نسيا	-11.2544
جزيئات	-11.2549
صرة	-11.2555
▁ففيه	-11.2563
▁سم	-11.2576
انين	-11.2581
▁ببعض	-11.2595
ريغو	-11.2598
▁النونا	-11.2608
عاني	-11.2611
خيس	-11.2616
الاجتماع	-11.2618
عوا	-11.262
اخره	-11.2638
▁عالي	-11.2645
العالم	-11.2655
الاسلام	-11.2655
33.	-11.2656
▁حلا	-11.2662
▁نصي	-11.2681
▁سر	-11.2683
▁4.	-11.2688
▁غوان	-11.2706
قال	-11.271
يزي	-11.271
سكون	-11.2716
يتحول	-11.2719
قات	-11.2751
▁للوز	-11.2752
توشي	-11.276
اعت	-11.2776
ايز	-11.2776
▁سون	-11.2778
اوند	-11.2794
▁صحي	-11.2796
زو	-11.2797
▁الهلا	-11.2817
▁دل	-11.2818
رافيم	-11.2842
غيير	-11.2845
▁وتت	-11.2853
شتا	-11.287
1246	-11.2874
دائ	-11.2883
▁كينت	-11.2905
▁الاسر	-11.2927
تلاء	-11.2929
ماسية	-11.293
▁والكل	-11.2932
وئي	-11.2933
▁بص	-11.2935
شكله	-11.2937
يده	-11.294
▁المهم	-11.294
▁واحترا	-11.2941
▁يهو	-11.2942
▁الخصو	-11.2942
▁عملا	-11.2954
▁ماد	-11.2956
ئم	-11.2959
▁يدع	-11.296
دع	-11.2964
صولها	-11.2972
▁بارا	-11.2986
لصرا	-11.2986
▁التقليدي	-11.2999
انيس	-11.3009
الارض	-11.3012
▁البت	-11.3024
▁كارو	-11.3026
لتصنيع	-11.3033
النشور	-11.3035
تواجه	-11.3035
سمين	-11.3039
▁فمن	-11.3055
▁كلور	-11.3073
▁هيكس	-11.3097
▁ويقو	-11.3098
▁والص	-11.3106
▁انتب	-11.3111
مات	-11.3113
ومة	-11.3114
▁مخي	-11.3118
▁تكال	-11.3127
المن	-11.3131
يرسي	-11.3132
دوم	-11.3151
اتها	-11.3171
▁285	-11.3178
بيني	-11.3179
قاس	-11.3179
▁وابو	-11.3183
سفلي	-11.3185
▁ويرب	-11.3186
بورون	-11.3198
▁اجتماعي	-11.3213
الحقي	-11.3214
9.	-11.3215
ريد	-11.3233
غران	-11.3235
سلام	-11.3238
عرب	-11.3249
▁التنا	-11.3252
▁المسؤولي	-11.3262
داول	-11.3262
بدع	-11.3274
جوه	-11.3299
▁الضر	-11.3306
عقد	-11.3315
,0	-11.3315
يامنا	-11.3318
▁99	-11.3319
,09	-11.3319
▁فصول	-11.3331
▁سيت	-11.3337
هوا	-11.3338
لبرنامج	-11.3339
لاله	-11.3341
▁مبا	-11.335
▁متوا	-11.3352
خو	-11.3356
▁8.	-11.3364
ثقيل	-11.3381
▁للص	-11.3388
وجي	-11.3397
▁اق	-11.3401
تعرف	-11.3405
واني	-11.3407
▁جل	-11.341
خادم	-11.3414
▁زوجت	-11.3416
▁كيه	-11.342
▁كوب	-11.3443
نسبية	-11.3454
نم	-11.3459
▁السياسي	-11.3463
رضيه	-11.3467
▁ويتص	-11.3472
▁توفي	-11.3474
▁براس	-11.3476
امل	-11.3493
▁اكي	-11.3502
▁مساح	-11.3504
اطع	-11.3509
اثيو	-11.3538
نسي	-11.3542
▁تحض	-11.356
راثي	-11.3564
▁ايس	-11.3568
المصفوفات	-11.3572
▁روب	-11.3593
اخوات	-11.3599
▁يوكو	-11.3603
رضعا	-11.3613
▁وعلاق	-11.3619
ومه	-11.363
ردو	-11.3631
▁الجزير	-11.3638
اعه	-11.3659
ستر	-11.367
▁الاغريقي	-11.3686
▁موسيق	-11.3693
▁المتر	-11.3693
طار	-11.3697
تشاد	-11.3699
بلاد	-11.3705
▁بعت	-11.3708
دت	-11.3712
▁وام	-11.3716
▁السلفي	-11.3719
▁فيرو	-11.374
ثق	-11.3742
▁محم	-11.3743
▁هيل	-11.3745
لصناعة	-11.3749
55	-11.375
يبيري	-11.3759
وساك	-11.3779
▁يب	-11.3782
▁الول	-11.3788
شترك	-11.3795
يبنا	-11.3797
▁لذ	-11.382
زير	-11.3822
زية	-11.3831
راح	-11.385
▁ازم	-11.3872
▁الهب	-11.388
محل	-11.3896
ورق	-11.3896
ياح	-11.3904
▁ودع	-11.3908
▁در	-11.3915
مبي	-11.3916
▁تض	-11.3916
,4	-11.3939
لمشاكل	-11.3946
94	-11.3947
▁والفوسف	-11.3949
لتطوير	-11.3949
فاينيل	-11.3954
نادر	-11.3957
▁صل	-11.3964
▁الزي	-11.3966
سن	-11.3967
▁يسج	-11.3968
▁بالع	-11.397
كارت	-11.3995
تهون	-11.4004
▁توت	-11.4016
▁ورسو	-11.4019
رينت	-11.4024
▁مرا	-11.4026
ورسك	-11.403
يتك	-11.404
القو	-11.4043
▁قطب	-11.4067
▁معر	-11.4073
بايت	-11.4078
كهرو	-11.4097
▁الحاف	-11.4101
▁الرم	-11.4103
▁معن	-11.4107
▁السلس	-11.4108
ويات	-11.4113
بترول	-11.412
▁تين	-11.4124
شاب	-11.4128
▁موصل	-11.4134
▁الامو	-11.4135
▁117811	-11.4135
الورق	-11.4145
مرض	-11.4145
ليه	-11.415
▁اقتر	-11.4151
العين	-11.4151
مط	-11.4151
▁ديلا	-11.4157
66	-11.4195
▁اند	-11.4195
▁يعت	-11.4199
34.3	-11.4203
اندي	-11.421
وراك	-11.4213
مته	-11.4219
▁الكبري	-11.4219
▁والط	-11.4236
▁المتج	-11.4238
هره	-11.4248
▁عظي	-11.4261
▁مستعم	-11.4263
سره	-11.4265
صيبه	-11.4275
▁الاعل	-11.4281
▁الاساس	-11.4289
لوس	-11.4297
▁المها	-11.4303
▁يشته	-11.4323
▁تنظ	-11.4333
▁خلاص	-11.4337
عه	-11.434
خدم	-11.4345
شعبية	-11.4359
▁يسع	-11.4368
▁الجع	-11.4372
زات	-11.4375
حمر	-11.4378
يسه	-11.4383
19	-11.4387
▁والد	-11.4394
▁شاي	-11.4394
كونه	-11.4396
▁باتش	-11.4404
▁اصطناع	-11.4406
حم	-11.4421
▁مهر	-11.4422
▁الطو	-11.4423
محارب	-11.4426
ابلية	-11.4438
اندر	-11.4439
▁التا	-11.444
▁جوس	-11.4477
قيه	-11.4485
طو	-11.45
اصل	-11.4501
▁ثب	-11.4505
نتي	-11.4506
لفن	-11.4529
▁فيسر	-11.4529
▁ايما	-11.4542
غلب	-11.4547
قري	-11.4551
▁الوهاب	-11.4556
▁الموسيق	-11.4567
▁ماير	-11.458
▁بنقطت	-11.4593
▁حفي	-11.4608
▁الادو	-11.4623
بيد	-11.4635
لاستعما	-11.4646
طق	-11.4648
22.	-11.4662
كعب	-11.4662
▁ممط	-11.4684
لوم	-11.4684
▁هن	-11.4689
ئك	-11.4692
يانا	-11.4698
▁بينه	-11.4701
اره	-11.4701
اسح	-11.4718
بيل	-11.4718
النسب	-11.472
لمتغير	-11.4721
▁بنع	-11.4722
حاكم	-11.4722
ذرات	-11.4734
ويه	-11.4746
▁الصر	-11.4751
حاسوبية	-11.4774
▁اللهوي	-11.4781
عها	-11.4803
ميوع	-11.4806
ترف	-11.4808
▁لاش	-11.481
يمي	-11.4817
▁للبن	-11.4818
غانغ	-11.4824
ارضي	-11.4829
▁الصناع	-11.4834
خرب	-11.4849
ودا	-11.4855
بيت	-11.4856
▁ارس	-11.4865
غريب	-11.4871
باله	-11.4877
اريتي	-11.4881
اطراف	-11.4883
اثي	-11.4894
طوب	-11.4896
ذاه	-11.4901
▁جائ	-11.4905
▁قوان	-11.4915
هالا	-11.4918
انيا	-11.4926
▁بوم	-11.4949
▁كيتا	-11.4952
ازرق	-11.4952
وبي	-11.4956
612	-11.4976
03	-11.5001
زاس	-11.5006
وهب	-11.5029
لتفسير	-11.503
ريتي	-11.5038
كشف	-11.505
تعجب	-11.5054
▁التخل	-11.5064
▁كوس	-11.507
ناصر	-11.5075
لمهام	-11.5078
اقل	-11.5094
▁كت	-11.5101
جده	-11.5151
ايت	-11.5154
▁وقر	-11.5155
▁الخل	-11.5161
ناكا	-11.5162
▁حسين	-11.5164
▁صد	-11.517
ملا	-11.5176
▁خشبي	-11.5182
يكم	-11.5201
معنا	-11.5204
رجال	-11.5213
▁خس	-11.5217
شارك	-11.5222
لتنا	-11.5226
6,6	-11.5229
▁بدوي	-11.5232
▁هندسي	-11.5232
نيس	-11.5234
▁تعطي	-11.5244
21	-11.5255
▁نوبو	-11.5281
▁لال	-11.5308
يسي	-11.5315
طاء	-11.5319
كتر	-11.5327
13	-11.5341
بز	-11.5341
خضر	-11.5373
باه	-11.5379
شوكي	-11.538
▁التقني	-11.5381
اند	-11.5385
▁القطب	-11.5385
▁خن	-11.5386
▁كيب	-11.5386
▁غوس	-11.5394
▁لبر	-11.5395
▁امه	-11.5402
خافوا	-11.5407
لمتجه	-11.543
اندو	-11.5435
قوي	-11.5439
دوار	-11.5441
▁باق	-11.5441
حا	-11.5451
▁وصو	-11.5467
مغط	-11.547
▁الممت	-11.5472
يران	-11.5475
19.	-11.5481
نيكوس	-11.5484
ئن	-11.5485
استعمال	-11.5493
▁غالبي	-11.5515
اياما	-11.5518
تقل	-11.5524
فاصلة	-11.5534
▁موق	-11.5556
▁وشر	-11.5556
▁يعاد	-11.5584
دام	-11.5586
▁متجاور	-11.559
تقي	-11.5596
سخر	-11.5604
▁لاج	-11.5608
عماني	-11.5609
وغ	-11.5611
بيوت	-11.562
▁110	-11.5623
فاه	-11.5623
اطر	-11.5624
غس	-11.563
لاستخدام	-11.565
▁يخل	-11.565
▁الامها	-11.5651
▁الرخ	-11.5654
يتا	-11.5655
عام	-11.566
▁مربعا	-11.5671
رسية	-11.5692
مكم	-11.5696
ضال	-11.571
▁شرف	-11.5714
محاذ	-11.5716
لاموات	-11.5721
ساتو	-11.5725
▁مور	-11.5737
▁رائعو	-11.5745
▁عزي	-11.5748
▁هدو	-11.5748
▁وانه	-11.5748
تطابق	-11.5748
بف	-11.5754
وليد	-11.5758
باقا	-11.5758
لاع	-11.5759
▁مشبع	-11.5774
▁الاث	-11.5782
غاش	-11.5786
▁ساد	-11.579
جا	-11.5792
▁طا	-11.5793
صيل	-11.5796
▁الالماني	-11.5831
▁للمجموع	-11.5833
ارق	-11.5845
لتز	-11.5851
قلو	-11.5882
20	-11.5887
ايا	-11.5896
عترض	-11.5907
قارن	-11.5909
▁وكا	-11.591
▁الطبقي	-11.5916
قاوي	-11.5919
▁امي	-11.5925
▁هالان	-11.5937
▁صيني	-11.5939
تاكا	-11.5959
▁نم	-11.5967
▁تكو	-11.5972
الحكومة	-11.5981
اساس	-11.5986
▁استغ	-11.5987
▁تتج	-11.5996
اولفين	-11.6003
فوس	-11.6003
36	-11.6016
91	-11.6023
▁مث	-11.6026
▁الحكومي	-11.6029
▁ويس	-11.6031
تت	-11.6047
▁الفخ	-11.6049
يتين	-11.6054
افهه	-11.6057
جائ	-11.6068
▁ته	-11.6074
لحضار	-11.6077
سخ	-11.6077
ائن	-11.6086
▁العلاق	-11.6089
سويه	-11.6091
لشو	-11.6097
وانغ	-11.6121
يفة	-11.6141
▁سع	-11.6152
▁لانوا	-11.6158
اخذ	-11.6166
▁الشعر	-11.617
غرو	-11.6171
غار	-11.6171
مقا	-11.6178
لشتا	-11.6183
▁المي	-11.6194
فلسطين	-11.6197
▁رج	-11.62
▁اسطوري	-11.6221
▁ترف	-11.6222
290	-11.6227
▁119	-11.6227
▁يجو	-11.6234
▁النهر	-11.6243
▁للجزي	-11.6243
اموات	-11.625
يرها	-11.6258
▁التو	-11.6264
اوية	-11.6265
▁بقا	-11.6265
▁تقبل	-11.6266
اهم	-11.6272
طاط	-11.6287
▁بقطا	-11.6287
لبت	-11.6288
سوريا	-11.6288
▁الافرا	-11.6292
رور	-11.6303
اشخاص	-11.6303
راجع	-11.6321
▁اوكاف	-11.6324
ثبت	-11.6327
▁175	-11.6328
▁سكاني	-11.6333
▁المقطعي	-11.6339
دما	-11.6341
▁61	-11.6342
صلا	-11.6348
▁ري	-11.6348
كوب	-11.6349
جلد	-11.635
▁اضاف	-11.6352
▁بتس	-11.6353
فس	-11.6361
اغلب	-11.6366
يفه	-11.6368
▁يغي	-11.6388
يط	-11.6389
11	-11.639
▁210	-11.6417
ديد	-11.6423
لاحظ	-11.6425
▁يرتك	-11.6429
49	-11.6434
▁يعل	-11.6435
▁بهد	-11.6443
وسطية	-11.6452
رح	-11.6453
▁الصي	-11.6454
عدا	-11.6479
▁يشا	-11.6479
▁القم	-11.6489
تلف	-11.6495
خاصة	-11.6503
▁مسك	-11.6509
امته	-11.6516
▁سيتش	-11.6524
كاء	-11.6525
▁نحب	-11.6536
▁يفت	-11.6542
▁بدف	-11.6544
يرات	-11.6564
ديك	-11.6567
قر	-11.6567
▁نعي	-11.6568
▁فين	-11.6574
1932	-11.6575
بدل	-11.6577
▁اغي	-11.6579
نلو	-11.6583
1927	-11.6586
ركز	-11.6587
مسخر	-11.6588
▁98	-11.6589
▁هوائي	-11.6593
2010	-11.6593
1661	-11.6594
▁دوران	-11.661
▁باقي	-11.6614
هدد	-11.6618
44	-11.6619
اكب	-11.6621
فرنسا	-11.6621
يكو	-11.6627
قيمه	-11.6628
درجة	-11.663
اديان	-11.6638
▁المجاني	-11.6641
▁رود	-11.6648
▁ارب	-11.6649
ؤو	-11.6653
1221	-11.666
▁تفو	-11.6664
فجوة	-11.6665
▁وجز	-11.6666
جن	-11.6677
120	-11.6685
قود	-11.6686
بوك	-11.6687
1990	-11.6689
▁معهم	-11.6689
عدد	-11.669
وظيفية	-11.669
▁مساف	-11.6696
طموح	-11.6698
▁بالفا	-11.6703
ولكن	-11.6708
56	-11.6709
شروط	-11.6713
نييغاتا	-11.6714
2,1	-11.6721
لبنان	-11.6722
▁عضوي	-11.6728
▁اكتي	-11.673
▁تستغ	-11.6731
تخصص	-11.6731
ينامي	-11.6749
ركو	-11.6753
هيراكاتا	-11.6755
شعور	-11.6758
توجيه	-11.6761
لدراس	-11.6762
هيغاشي	-11.6762
تيلابيري	-11.6762
1891	-11.6765
هيروشيما	-11.6768
دفو	-11.6774
▁اعطا	-11.6776
▁فوكو	-11.6777
18.	-11.6781
45	-11.6787
توتوري	-11.6787
ساحة	-11.6792
▁تقليدي	-11.6795
سالبة	-11.6814
كية	-11.6815
بدين	-11.682
▁تحد	-11.6821
توكوشيما	-11.6821
ريدي	-11.6833
قدس	-11.6836
▁الخم	-11.6841
ناغا	-11.685
▁المتو	-11.6862
زوم	-11.6866
دخول	-11.6875
مبرهن	-11.6877
▁بقل	-11.6885
▁متص	-11.6891
يام	-11.6894
▁الجمعي	-11.6894
الخير	-11.6896
مم	-11.6909
لجزائر	-11.6911
اشوف	-11.6912
تحمل	-11.6914
▁وبالاي	-11.6924
▁فرنس	-11.6926
مانية	-11.6928
توياما	-11.6932
بلية	-11.6935
فرق	-11.6937
صينية	-11.6944
اعتماد	-11.6945
مستقبل	-11.6951
▁واد	-11.6951
▁كهربائيا	-11.6954
نهرين	-11.6966
اسة	-11.6969
بيك	-11.6969
افلام	-11.6988
ارسطو	-11.6988
▁بانش	-11.6995
صبا	-11.6997
▁قبله	-11.7005
تعريف	-11.7007
▁لمك	-11.7009
للجر	-11.701
▁عائ	-11.7012
واص	-11.7036
اختيار	-11.7037
استقلال	-11.704
▁يرتب	-11.7044
اوكاياما	-11.7045
▁مريض	-11.7063
يوميه	-11.7065
جاه	-11.708
الثامن	-11.7081
فرع	-11.7084
▁باش	-11.71
▁لمجموع	-11.7104
عوام	-11.7105
▁الدي	-11.7106
اندونيسيا	-11.7107
رائع	-11.7111
▁صدور	-11.7116
▁كرو	-11.7122
▁مستق	-11.713
ناميبي	-11.7135
194	-11.7147
▁اه	-11.7159
▁تدع	-11.7182
حفور	-11.7184
▁جزائري	-11.7187
▁والجي	-11.7192
500	-11.7194
الاحصائي	-11.7208
▁روسي	-11.7223
▁يز	-11.7228
لتمس	-11.7238
▁تصدر	-11.7246
ملوك	-11.7253
▁وتص	-11.7255
متزامر	-11.7256
▁ارضي	-11.7259
توقع	-11.7262
▁ظا	-11.7268
فوكوكا	-11.7271
▁الامه	-11.7273
تسمان	-11.7285
المعلاة	-11.7288
نفي	-11.7289
▁المدر	-11.729
ورات	-11.7292
شبا	-11.7295
▁غور	-11.7306
لمدرس	-11.7306
يملك	-11.7314
حط	-11.7317
▁العل	-11.7322
▁بالاح	-11.7328
بلور	-11.7338
لتس	-11.734
منحني	-11.735
▁برن	-11.7354
الحواس	-11.7379
▁تخت	-11.738
بيولوجي	-11.7386
معناه	-11.7388
سس	-11.7394
▁ومكا	-11.7395
,8	-11.7399
المتر	-11.7408
موت	-11.7415
مقياس	-11.7424
▁مخل	-11.7441
▁لسانيا	-11.7447
السويد	-11.7447
▁المان	-11.7471
▁تقليد	-11.7471
جورج	-11.7475
رخ	-11.7481
▁تصي	-11.7485
▁سنغا	-11.7488
▁تخل	-11.7494
▁البروت	-11.7497
لطاقة	-11.7503
بولي	-11.7506
وند	-11.7512
▁وشت	-11.7522
يناء	-11.7523
▁الكور	-11.7525
روميد	-11.7531
عصبون	-11.7531
▁احت	-11.7548
اسبانيا	-11.7549
احس	-11.755
يجو	-11.7551
▁بترو	-11.7554
▁ماكس	-11.756
▁بلات	-11.7565
▁وطن	-11.7569
ثة	-11.7583
▁الجي	-11.7583
▁الانس	-11.7586
صود	-11.7587
▁وتراب	-11.7593
تشو	-11.7609
▁كولوم	-11.7611
▁مضا	-11.7622
وابع	-11.7627
يعطي	-11.7631
انغو	-11.7631
▁يحس	-11.7633
زئبق	-11.7635
كلاسيكية	-11.7636
▁عط	-11.7637
نعاني	-11.7637
▁المتحد	-11.764
جهات	-11.7642
▁عثمان	-11.7651
▁الكلاسيكي	-11.7655
▁بوض	-11.766
الروابط	-11.7665
▁كوميد	-11.7669
اضل	-11.7671
▁وظيفي	-11.7674
نيكا	-11.7684
▁المجمو	-11.7686
اغبي	-11.769
▁الفعال	-11.7693
متكررة	-11.7694
▁اغريق	-11.7699
▁اللاتيني	-11.7701
59	-11.7704
▁ادن	-11.7712
▁ساكسوني	-11.7715
لانحراف	-11.7717
▁مخلوق	-11.7718
▁صيغ	-11.7724
▁ومت	-11.7725
لاي	-11.7726
طياف	-11.7727
▁الكترو	-11.7727
▁استرالي	-11.7728
لمكثور	-11.773
لفيزيائي	-11.7734
لحاسوب	-11.7735
▁مساحته	-11.7736
▁انسا	-11.7738
▁الوحي	-11.7746
اكوادور	-11.7747
لمرحل	-11.7749
▁ايطالي	-11.7749
▁والفس	-11.775
فرد	-11.7754
لاطفال	-11.7761
رملي	-11.7765
سابقة	-11.7787
▁رومان	-11.7788
▁سعاد	-11.7789
▁القضا	-11.7789
ارتفاع	-11.7796
▁هيدروكربون	-11.7801
خوارج	-11.7803
▁جسيم	-11.7806
وسائ	-11.7813
▁الرما	-11.7813
▁التعب	-11.7819
يكروسوفت	-11.7826
▁المؤتم	-11.7827
▁الهولن	-11.783
▁جغرا	-11.7833
▁باسكا	-11.7836
هولندي	-11.784
▁كريست	-11.7843
▁فيكتور	-11.7847
▁الكاثو	-11.7847
▁الاثنولو	-11.7849
▁هيروشي	-11.7849
991	-11.7851
1260	-11.7851
لكويت	-11.7852
▁البرنام	-11.7852
95	-11.7853
10,0	-11.7854
مختلف	-11.7855
313	-11.7857
,000,000	-11.7857
1194	-11.7858
نيكوف	-11.7858
الايا	-11.7859
ستغرق	-11.786
260	-11.7861
لابيري	-11.7862
لمكان	-11.7864
▁الاكواد	-11.7865
▁1000000	-11.7865
▁المكسي	-11.7865
1191	-11.7867
▁روماني	-11.7869
لفين	-11.787
1012	-11.7871
استوائي	-11.7874
▁المكث	-11.7875
▁البيانا	-11.7882
تع	-11.7883
مرداس	-11.7884
▁الديسي	-11.7884
,32	-11.7885
اعات	-11.7885
طالي	-11.7887
ريتانيا	-11.7888
▁رد	-11.7888
▁1,000	-11.789
بساط	-11.7893
وائية	-11.7896
القاهر	-11.7897
▁118	-11.79
1,00	-11.7903
,3	-11.7907
▁مورو	-11.7913
عاقب	-11.7913
▁اكادي	-11.7917
واج	-11.7917
ازاكي	-11.7922
مشتق	-11.7922
لخط	-11.7923
ونتانا	-11.7923
ونادي	-11.7925
▁ايض	-11.7925
▁كربو	-11.7928
928	-11.7929
▁المركز	-11.7934
▁بنديك	-11.7935
▁قيمت	-11.7936
فلسف	-11.7936
▁متجاوز	-11.7937
برافين	-11.7938
▁10000	-11.7945
▁متزام	-11.7948
▁سافو	-11.7949
رسوم	-11.7955
236	-11.7958
▁الخشو	-11.7959
▁جمهو	-11.796
بلاست	-11.7966
▁الانجل	-11.7966
لحساب	-11.7968
انتاج	-11.7973
▁موض	-11.7975
▁اللبن	-11.7978
كحول	-11.7978
▁وجا	-11.798
▁توك	-11.7981
لبحير	-11.7991
▁تير	-11.7993
,68	-11.7994
▁المعلوما	-11.7995
لكوت	-11.7997
لهوان	-11.8002
▁والسع	-11.8011
ياري	-11.8015
مستشار	-11.8015
385	-11.8016
رويج	-11.8022
قن	-11.8036
لانو	-11.8039
▁المشتركي	-11.804
▁مهندس	-11.8044
نظ	-11.8047
▁محت	-11.8056
نيعه	-11.8057
دخ	-11.8059
لار	-11.806
ؤول	-11.8065
▁المعلوم	-11.8066
▁اسطو	-11.8072
1216	-11.8074
▁المحلي	-11.8076
وراس	-11.8079
حياة	-11.8081
▁الها	-11.8096
▁ويع	-11.81
الدينا	-11.8102
صناع	-11.8115
▁للقيا	-11.8118
▁الصد	-11.8123
▁محر	-11.8134
بدلا	-11.8135
▁ادرا	-11.8137
▁جدو	-11.8137
1240	-11.8138
▁الاسباني	-11.8139
▁يط	-11.814
▁والاعت	-11.814
ثقاف	-11.8141
دته	-11.8152
▁برو	-11.8154
▁الاولفي	-11.8159
صص	-11.817
▁تتفا	-11.8179
يما	-11.8194
▁المسل	-11.8198
▁كولومب	-11.8198
▁تؤ	-11.8201
ينية	-11.8213
يوارا	-11.8231
▁كيميا	-11.8234
▁الشع	-11.824
▁الكمي	-11.8242
▁ادعو	-11.8244
حرم	-11.8244
غيرة	-11.8254
ميل	-11.8254
قائد	-11.8259
ماموتو	-11.8267
▁الحاج	-11.8275
واكاياما	-11.8276
ائد	-11.8281
▁هليو	-11.8287
▁الكث	-11.8295
▁اوم	-11.8295
▁الزبا	-11.83
وقد	-11.8302
ويلات	-11.8303
▁معان	-11.8306
ارتي	-11.8308
الصو	-11.8311
3,	-11.8322
الرابع	-11.8332
غواي	-11.8332
قائده	-11.8338
▁الكيل	-11.8353
فيصل	-11.8355
35,0	-11.8362
بطالمة	-11.8374
ترات	-11.8377
زيل	-11.8377
وجوه	-11.8377
ؤس	-11.8378
متدا	-11.8379
1193	-11.8386
ونيش	-11.8391
▁الفاك	-11.8394
▁المدار	-11.8395
شارل	-11.84
تربط	-11.84
▁توم	-11.8403
مستقيم	-11.8405
▁الحواس	-11.8406
باش	-11.8408
▁دائم	-11.8409
▁المر	-11.8411
ميكرو	-11.8425
▁للاط	-11.8436
▁الحيا	-11.8443
اسوا	-11.845
الايطالي	-11.8461
زيز	-11.8461
▁باليابان	-11.8464
▁اغل	-11.8464
▁المم	-11.8471
▁صع	-11.8484
▁والظ	-11.8485
▁هر	-11.8491
صحراء	-11.8495
اسكو	-11.8496
نويل	-11.8509
لشخص	-11.851
▁اسع	-11.8529
▁حج	-11.8538
مراجع	-11.8538
معسكر	-11.8542
▁طرفي	-11.8549
▁الناط	-11.8559
▁الجدو	-11.8562
موا	-11.8565
▁للو	-11.8568
▁كاخ	-11.8573
فين	-11.858
▁بتف	-11.8582
فلوريد	-11.8588
▁بالجد	-11.859
▁نيوي	-11.859
ويتا	-11.8602
ايكس	-11.8603
نيت	-11.8612
▁بار	-11.8614
باقية	-11.8615
▁الجعل	-11.8617
شل	-11.8619
هان	-11.862
▁الرو	-11.8625
اخرون	-11.8626
▁انطو	-11.8627
▁الاستو	-11.8635
▁عشا	-11.8643
▁ات	-11.8644
يغن	-11.8648
240	-11.8649
▁غط	-11.8651
قدية	-11.8654
▁خوار	-11.8659
▁الفضائ	-11.866
خفيف	-11.8672
المجاني	-11.8675
تطبيق	-11.8684
رماد	-11.8693
فوك	-11.8695
جاي	-11.8697
▁الروماني	-11.87
▁المثلث	-11.87
طعية	-11.8701
▁وعق	-11.8704
▁درج	-11.8708
صغري	-11.8714
▁رايت	-11.8716
كررة	-11.8722
▁ايجا	-11.8722
▁هرو	-11.8723
وليكو	-11.8732
▁جاب	-11.8742
54	-11.8743
▁حذ	-11.8743
▁والمج	-11.8743
ورغ	-11.8745
صيغة	-11.8749
▁بالتك	-11.8756
وجين	-11.8761
▁المهن	-11.8773
ساغا	-11.8777
▁متس	-11.8787
يطاني	-11.8787
▁فردي	-11.8795
روانية	-11.8796
وكلي	-11.8805
توسع	-11.8806
جنبي	-11.8812
الشبك	-11.882
رايتر	-11.8833
▁المتق	-11.8834
ميا	-11.8837
ليوني	-11.8845
يشكل	-11.8848
ركب	-11.885
هجري	-11.8856
135	-11.8858
الابو	-11.8859
▁بقرب	-11.8879
▁وتعم	-11.8882
شتهر	-11.8887
112	-11.8892
لامي	-11.8892
ويض	-11.8893
▁ساع	-11.8896
▁زوجا	-11.89
لتفا	-11.89
بويرة	-11.8906
▁هيلب	-11.8918
المؤ	-11.8924
لعالم	-11.8927
مارك	-11.8928
صوته	-11.8929
▁بحك	-11.8932
▁بروم	-11.8943
رمون	-11.8945
▁والمس	-11.8951
▁الراب	-11.8957
ليو	-11.8959
طينية	-11.8963
▁العب	-11.8967
تداب	-11.8969
▁وتسم	-11.8971
▁فوكوشي	-11.8975
مترا	-11.8988
▁تتخ	-11.899
الطا	-11.8995
ونان	-11.9011
هيتو	-11.9021
▁120	-11.9021
▁فاق	-11.9024
طقة	-11.9025
▁مبد	-11.9033
روسو	-11.9033
▁الولا	-11.9047
▁الترك	-11.9049
يتوس	-11.905
▁الكت	-11.9052
تلاقي	-11.9061
لونيا	-11.9062
▁تعم	-11.9065
يتم	-11.9073
79	-11.9078
دح	-11.9094
▁الهول	-11.91
نج	-11.9116
امين	-11.9118
▁الشبا	-11.912
▁اردن	-11.9125
لمف	-11.9139
افيل	-11.9152
بائية	-11.9162
بيون	-11.9171
▁قط	-11.9176
غسل	-11.9176
عواص	-11.9184
اكاياما	-11.9187
▁ليوب	-11.9188
▁الدني	-11.9199
▁واسترا	-11.9201
لطف	-11.9211
▁بتت	-11.9212
خام	-11.9225
▁افض	-11.923
ينيا	-11.924
خري	-11.9251
▁35	-11.9257
امارات	-11.926
والد	-11.9267
رسول	-11.927
▁لات	-11.928
درو	-11.9282
▁الموج	-11.9283
ليزي	-11.9285
طلو	-11.9336
تنفسي	-11.934
▁شيري	-11.9355
كنة	-11.9361
▁واش	-11.9364
ذال	-11.9364
▁الاسا	-11.9394
بيريا	-11.9407
وكل	-11.9431
وسي	-11.9434
لشغل	-11.9442
▁اماك	-11.9445
▁بيرا	-11.9449
▁الواح	-11.9452
تنري	-11.9457
▁121	-11.9464
قبله	-11.9486
كار	-11.9494
بوق	-11.95
▁للبل	-11.9501
المتوسط	-11.9519
لغا	-11.9525
▁الوا	-11.9528
▁الخن	-11.9529
فظ	-11.9546
وصف	-11.9557
▁مشا	-11.9559
▁اوك	-11.9562
سنا	-11.9571
▁مقد	-11.9575
ميم	-11.9579
نطلق	-11.9579
▁بنق	-11.9579
▁مرت	-11.9584
▁تومو	-11.9586
166	-11.9591
تانيو	-11.9602
تذك	-11.9604
نيسي	-11.9611
▁صنا	-11.9622
▁بض	-11.9631
دزو	-11.9646
ارفي	-11.9652
▁الوزني	-11.9669
▁الديك	-11.9694
▁شما	-11.97
لطق	-11.97
هارو	-11.9702
▁يحد	-11.9703
▁الغر	-11.9714
▁وظ	-11.9733
▁يه	-11.9736
▁لينب	-11.9738
▁اشوف	-11.9743
شاؤ	-11.9763
مودي	-11.9763
▁والوس	-11.9772
تعرض	-11.9775
قياس	-11.9777
زون	-11.978
198	-11.9783
نباتي	-11.9784
سبت	-11.9791
تفسير	-11.9793
ثين	-11.9795
▁الوط	-11.9798
تراث	-11.9805
وزف	-11.9805
▁والخ	-11.9817
▁ور	-11.9844
▁محلي	-11.9856
ليم	-11.986
▁قطري	-11.9873
▁اسلا	-11.9878
▁ادع	-11.9879
▁بطن	-11.9888
ونيو	-11.9904
▁ومحا	-11.9911
▁يحا	-11.9912
▁تاب	-11.9917
وجهه	-11.9921
اكت	-11.9924
▁متط	-11.9928
صفار	-11.9929
35,	-11.9938
نفط	-11.9942
فوج	-11.9943
لسؤال	-11.9946
▁للذ	-11.9961
▁يرم	-11.9967
▁صب	-11.9967
▁هالق	-11.9971
دلوا	-11.9985
بيب	-11.9994
▁الراي	-12.0008
حتون	-12.0015
ايبر	-12.0032
ادس	-12.004
▁ياش	-12.005
عبار	-12.0067
شوغو	-12.0069
ازن	-12.0072
▁مقس	-12.0082
اغرا	-12.0083
بغ	-12.0095
كرم	-12.0099
بيونك	-12.0111
اهلية	-12.0118
▁بولي	-12.0135
▁والاح	-12.0153
عيب	-12.0157
▁مختل	-12.0157
▁حكوم	-12.0161
شبع	-12.0164
واكا	-12.0166
يثة	-12.0186
▁عال	-12.0196
جاكي	-12.0203
اعد	-12.021
يدات	-12.0223
شم	-12.0229
▁البيض	-12.0232
ظو	-12.024
▁ورض	-12.0243
▁دوس	-12.0257
كلون	-12.027
رير	-12.0278
▁الشم	-12.0283
▁عالمي	-12.0289
▁قضا	-12.0304
صبي	-12.0313
▁تص	-12.0319
روت	-12.0321
ريين	-12.033
دقا	-12.0334
مطاط	-12.0337
كذا	-12.0345
لج	-12.0367
منط	-12.0368
ميغا	-12.0371
ماري	-12.0373
لمسافة	-12.0398
فصول	-12.0414
يعت	-12.0418
يجام	-12.0418
▁وتس	-12.0426
نده	-12.0438
▁الازه	-12.0441
يكس	-12.0444
ادو	-12.0448
شاهد	-12.0456
▁رض	-12.0493
▁ثان	-12.0508
يسان	-12.0522
ازل	-12.0529
لطي	-12.0531
وزين	-12.0538
229	-12.0542
▁الانسا	-12.0562
▁لاست	-12.0564
ضعه	-12.0572
ادا	-12.0581
▁تز	-12.0612
▁سبب	-12.0615
▁هوا	-12.0622
بيضاء	-12.0635
بته	-12.0637
نيه	-12.065
سعاد	-12.0652
▁الطر	-12.0652
▁الهوا	-12.0657
نح	-12.0663
لمهندس	-12.0671
لسيار	-12.0671
▁لفوكو	-12.068
